{
  "merges": [
    [
      "ు",
      "</w>"
    ],
    [
      "్",
      "ర"
    ],
    [
      "ల",
      "ు"
    ],
    [
      ",",
      "</w>"
    ],
    [
      "్",
      "య"
    ],
    [
      ".",
      "</w>"
    ],
    [
      "భ",
      "ా"
    ],
    [
      "ా",
      "</w>"
    ],
    [
      "న",
      "్"
    ],
    [
      "ె",
      "లు"
    ],
    [
      "ర",
      "ి"
    ],
    [
      "్",
      "త"
    ],
    [
      "త",
      "ెలు"
    ],
    [
      "తెలు",
      "గ"
    ],
    [
      "భా",
      "ష"
    ],
    [
      "ో",
      "</w>"
    ],
    [
      "తెలుగ",
      "ు</w>"
    ],
    [
      "ి",
      ".</w>"
    ],
    [
      "న్",
      "న"
    ],
    [
      "ి",
      "</w>"
    ],
    [
      "ప",
      "్ర"
    ],
    [
      "ల",
      "ో</w>"
    ],
    [
      "మ",
      "రి"
    ],
    [
      "వ",
      "ా"
    ],
    [
      "క",
      "</w>"
    ],
    [
      "ల",
      "ు</w>"
    ],
    [
      "వ",
      "ి"
    ],
    [
      "ం",
      "గ"
    ],
    [
      "ం",
      "ద"
    ],
    [
      "మరి",
      "య"
    ],
    [
      "మరియ",
      "ు</w>"
    ],
    [
      "లు",
      ",</w>"
    ],
    [
      "న్న",
      "ా"
    ],
    [
      "మ",
      "ా"
    ],
    [
      "స",
      "ా"
    ],
    [
      "య",
      "ి.</w>"
    ],
    [
      "స",
      "్త"
    ],
    [
      "త",
      "్ర"
    ],
    [
      "న్నా",
      "యి.</w>"
    ],
    [
      "భాష",
      "ా</w>"
    ],
    [
      "్",
      "స"
    ],
    [
      "్",
      "</w>"
    ],
    [
      "ు",
      "త"
    ],
    [
      "న",
      "ి"
    ],
    [
      "్య",
      "ా"
    ],
    [
      "ంద",
      "ి.</w>"
    ],
    [
      "ం",
      "</w>"
    ],
    [
      "ం",
      ",</w>"
    ],
    [
      "వా",
      "ర"
    ],
    [
      "త",
      "ి"
    ],
    [
      "క",
      "ా"
    ],
    [
      "ుత",
      "ు"
    ],
    [
      "త",
      "</w>"
    ],
    [
      "ా",
      "ల"
    ],
    [
      "ద",
      "్"
    ],
    [
      "స",
      "ం"
    ],
    [
      "క",
      "ల"
    ],
    [
      "సా",
      "ం"
    ],
    [
      "క",
      "ే"
    ],
    [
      "త",
      "్త"
    ],
    [
      "ద",
      "ి"
    ],
    [
      "త",
      "్స"
    ],
    [
      "ర",
      "ు"
    ],
    [
      "ా",
      "న"
    ],
    [
      "ంగ",
      "ా</w>"
    ],
    [
      "డ",
      "ుతు"
    ],
    [
      "డ",
      "ి"
    ],
    [
      "ల",
      "్</w>"
    ],
    [
      "క",
      "ో"
    ],
    [
      "వ",
      "్యా"
    ],
    [
      "క",
      "్"
    ],
    [
      "ాల",
      "లో</w>"
    ],
    [
      "త",
      "్య"
    ],
    [
      "ర",
      "ంగ"
    ],
    [
      "క",
      "ృ"
    ],
    [
      "ం",
      "ప"
    ],
    [
      "సాం",
      "కే"
    ],
    [
      "సాంకే",
      "తి"
    ],
    [
      "య",
      "ా"
    ],
    [
      "త్ర",
      "ి"
    ],
    [
      "ూ",
      "ప"
    ],
    [
      "ప",
      "ు"
    ],
    [
      "త్స",
      "వా"
    ],
    [
      "న్న",
      "ి</w>"
    ],
    [
      "ి",
      "స్త"
    ],
    [
      "ప్ర",
      "ా"
    ],
    [
      "ం",
      "చ"
    ],
    [
      "ం",
      "లో</w>"
    ],
    [
      "స",
      "ి"
    ],
    [
      "సి",
      "ని"
    ],
    [
      "ల",
      "</w>"
    ],
    [
      "ు",
      "గ"
    ],
    [
      "వి",
      "ద"
    ],
    [
      "డి",
      "జ"
    ],
    [
      "డిజ",
      "ి"
    ],
    [
      "డిజి",
      "ట"
    ],
    [
      "డిజిట",
      "ల్</w>"
    ],
    [
      "వ్యా",
      "ప"
    ],
    [
      "వ్యాప",
      "్త"
    ],
    [
      "క",
      "ు</w>"
    ],
    [
      "మ",
      "</w>"
    ],
    [
      "ు",
      "న్నాయి.</w>"
    ],
    [
      "మరి",
      "ం"
    ],
    [
      "మరిం",
      "త</w>"
    ],
    [
      "ా",
      "లు</w>"
    ],
    [
      "ఒ",
      "క</w>"
    ],
    [
      "ఇ",
      "ద"
    ],
    [
      "ఇద",
      "ి</w>"
    ],
    [
      "ర",
      "ా"
    ],
    [
      "ధ",
      "ాన"
    ],
    [
      "బ",
      "డుతు"
    ],
    [
      "సా",
      "హ"
    ],
    [
      "సాహ",
      "ి"
    ],
    [
      "సాహి",
      "త్య"
    ],
    [
      "ా",
      "ట"
    ],
    [
      "ద్",
      "వార"
    ],
    [
      "ద్వార",
      "ా</w>"
    ],
    [
      "వి",
      "స్త"
    ],
    [
      "స",
      "్"
    ],
    [
      "స్",
      "కృ"
    ],
    [
      "స్కృ",
      "తి"
    ],
    [
      "ా",
      "ర"
    ],
    [
      "త",
      "న"
    ],
    [
      "కల",
      "ి"
    ],
    [
      "కలి",
      "గ"
    ],
    [
      "న్నా",
      "రు"
    ],
    [
      "న్నారు",
      ".</w>"
    ],
    [
      "విద",
      "్య"
    ],
    [
      "సాంకేతి",
      "క</w>"
    ],
    [
      "రంగ",
      "ాలలో</w>"
    ],
    [
      "ో",
      "ష"
    ],
    [
      "న్",
      "</w>"
    ],
    [
      "వ",
      "ే"
    ],
    [
      "ో",
      "ంది.</w>"
    ],
    [
      "ఆ",
      "ధ"
    ],
    [
      "ఆధ",
      "ు"
    ],
    [
      "క",
      "ూ"
    ],
    [
      "కూ",
      "డ"
    ],
    [
      "క",
      "ొ"
    ],
    [
      "కొ",
      "త్త"
    ],
    [
      "కొత్త",
      "</w>"
    ],
    [
      "ద్",
      "ధ"
    ],
    [
      "క",
      "ి</w>"
    ],
    [
      "ర",
      "ణ"
    ],
    [
      "చ",
      "ూప"
    ],
    [
      "స",
      "్స"
    ],
    [
      "ు",
      "లు,</w>"
    ],
    [
      "త",
      "్"
    ],
    [
      "త్",
      "వ"
    ],
    [
      "పు",
      "స్త"
    ],
    [
      "మ",
      "ో"
    ],
    [
      "త్సవా",
      "లు</w>"
    ],
    [
      "ప",
      "ె"
    ],
    [
      "ొ",
      "ంద"
    ],
    [
      "ిస్త",
      "ున్నాయి.</w>"
    ],
    [
      "భ",
      "వి"
    ],
    [
      "భవి",
      "ష"
    ],
    [
      "భవిష",
      "్య"
    ],
    [
      "భవిష్య",
      "త్త"
    ],
    [
      "భవిష్యత్త",
      "ు"
    ],
    [
      "భవిష్యత్తు",
      "లో</w>"
    ],
    [
      "్",
      "ప"
    ],
    [
      "ే",
      "</w>"
    ],
    [
      "అ",
      "వ"
    ],
    [
      "అవ",
      "కా"
    ],
    [
      "అవకా",
      "శ"
    ],
    [
      "అవకాశ",
      "ాలు</w>"
    ],
    [
      "ఉ",
      "న్నాయి.</w>"
    ],
    [
      "ప",
      "ై"
    ],
    [
      "పై",
      "</w>"
    ],
    [
      "వ",
      "ల"
    ],
    [
      "భాష",
      "</w>"
    ],
    [
      "ప",
      "ద"
    ],
    [
      "మ",
      "ై"
    ],
    [
      "మై",
      "న"
    ],
    [
      "మైన",
      "ది"
    ],
    [
      "మైనది",
      ",</w>"
    ],
    [
      "అ",
      "న"
    ],
    [
      "ప",
      "ా"
    ],
    [
      "త్ర",
      "</w>"
    ],
    [
      "ధ",
      "న"
    ],
    [
      "ఈ",
      "</w>"
    ],
    [
      "సిని",
      "మా"
    ],
    [
      "ంచ",
      "ి</w>"
    ],
    [
      "ప",
      "ర"
    ],
    [
      "ప్ర",
      "జ"
    ],
    [
      "జ",
      "్"
    ],
    [
      "జ్",
      "ఞ"
    ],
    [
      "జ్ఞ",
      "ాన"
    ],
    [
      "భాష",
      "లో</w>"
    ],
    [
      "య",
      "ుగ"
    ],
    [
      "యుగ",
      "ంలో</w>"
    ],
    [
      "మా",
      "ణ"
    ],
    [
      "మాణ",
      "ా"
    ],
    [
      "ు",
      "లు</w>"
    ],
    [
      "ు",
      "ల"
    ],
    [
      "వ",
      "చ"
    ],
    [
      "వచ",
      "్"
    ],
    [
      "వచ్",
      "చ"
    ],
    [
      "త",
      "మ</w>"
    ],
    [
      "ప",
      "రి"
    ],
    [
      "క్",
      "ష"
    ],
    [
      "కో",
      "వ"
    ],
    [
      "కోవ",
      "డ"
    ],
    [
      "ప్ర",
      "ప"
    ],
    [
      "ప్రప",
      "ంచ"
    ],
    [
      "వ్యాప్త",
      "ంగా</w>"
    ],
    [
      "ద",
      "్ర"
    ],
    [
      "ద్ర",
      "ా"
    ],
    [
      "ద్రా",
      "వి"
    ],
    [
      "ద్రావి",
      "డ"
    ],
    [
      "ద్రావిడ",
      "</w>"
    ],
    [
      "భాష",
      ".</w>"
    ],
    [
      "ఆ",
      "ం"
    ],
    [
      "ఆం",
      "ధ"
    ],
    [
      "ఆంధ",
      "్ర"
    ],
    [
      "ఆంధ్ర",
      "</w>"
    ],
    [
      "ప్ర",
      "ద"
    ],
    [
      "ప్రద",
      "ే"
    ],
    [
      "ప్రదే",
      "శ"
    ],
    [
      "ప్రదేశ",
      "్</w>"
    ],
    [
      "త",
      "ె"
    ],
    [
      "తె",
      "ల"
    ],
    [
      "తెల",
      "ంగ"
    ],
    [
      "తెలంగ",
      "ా"
    ],
    [
      "తెలంగా",
      "ణ"
    ],
    [
      "తెలంగాణ",
      "</w>"
    ],
    [
      "రా",
      "ష"
    ],
    [
      "రాష",
      "్"
    ],
    [
      "రాష్",
      "ట"
    ],
    [
      "రాష్ట",
      "్ర"
    ],
    [
      "రాష్ట్ర",
      "ాలలో</w>"
    ],
    [
      "ప్ర",
      "ధాన"
    ],
    [
      "ప్రధాన",
      "ంగా</w>"
    ],
    [
      "మా",
      "ట"
    ],
    [
      "మాట",
      "్"
    ],
    [
      "మాట్",
      "ల"
    ],
    [
      "మాట్ల",
      "ా"
    ],
    [
      "మాట్లా",
      "డ"
    ],
    [
      "మాట్లాడ",
      "బడుతు"
    ],
    [
      "మాట్లాడబడుతు",
      "ంది.</w>"
    ],
    [
      "సాహిత్య",
      "ం,</w>"
    ],
    [
      "సినిమా",
      ",</w>"
    ],
    [
      "స",
      "ంగ"
    ],
    [
      "సంగ",
      "ీ"
    ],
    [
      "సంగీ",
      "త"
    ],
    [
      "సంగీత",
      "ం,</w>"
    ],
    [
      "న",
      "ాట"
    ],
    [
      "నాట",
      "క</w>"
    ],
    [
      "రంగ",
      "ం,</w>"
    ],
    [
      "వార",
      "్త"
    ],
    [
      "వార్త",
      "ా</w>"
    ],
    [
      "మా",
      "ధ"
    ],
    [
      "మాధ",
      "్య"
    ],
    [
      "మాధ్య",
      "మా"
    ],
    [
      "మాధ్యమా",
      "ల</w>"
    ],
    [
      "విస్త",
      "రి"
    ],
    [
      "విస్తరి",
      "ంచి</w>"
    ],
    [
      "ఉ",
      "ంది.</w>"
    ],
    [
      "చ",
      "రి"
    ],
    [
      "చరి",
      "త్ర"
    ],
    [
      "చరిత్ర",
      ",</w>"
    ],
    [
      "సం",
      "స్కృతి"
    ],
    [
      "సంస్కృతి",
      ",</w>"
    ],
    [
      "ప",
      "ం"
    ],
    [
      "పం",
      "డ"
    ],
    [
      "పండ",
      "ుగ"
    ],
    [
      "పండుగ",
      "లు,</w>"
    ],
    [
      "ఆ",
      "హ"
    ],
    [
      "ఆహ",
      "ార"
    ],
    [
      "ఆహార",
      "</w>"
    ],
    [
      "పర",
      "ంప"
    ],
    [
      "పరంప",
      "ర"
    ],
    [
      "పరంపర",
      "ల"
    ],
    [
      "పరంపరల",
      "త"
    ],
    [
      "పరంపరలత",
      "ో</w>"
    ],
    [
      "ప్రజ",
      "లు</w>"
    ],
    [
      "ప్ర",
      "త్య"
    ],
    [
      "ప్రత్య",
      "ే"
    ],
    [
      "ప్రత్యే",
      "క"
    ],
    [
      "ప్రత్యేక",
      "తన"
    ],
    [
      "ప్రత్యేకతన",
      "ు</w>"
    ],
    [
      "కలిగ",
      "ి</w>"
    ],
    [
      "ఉ",
      "న్నారు.</w>"
    ],
    [
      "విద్య",
      ",</w>"
    ],
    [
      "వి",
      "జ్ఞాన"
    ],
    [
      "విజ్ఞాన",
      "ం,</w>"
    ],
    [
      "ఎ",
      "న్న"
    ],
    [
      "ఎన్న",
      "ో</w>"
    ],
    [
      "ర",
      "చ"
    ],
    [
      "రచ",
      "న"
    ],
    [
      "రచన",
      "లు</w>"
    ],
    [
      "వ",
      "ెలు"
    ],
    [
      "వెలు",
      "వ"
    ],
    [
      "వెలువ",
      "డుతు"
    ],
    [
      "వెలువడుతు",
      "న్నాయి.</w>"
    ],
    [
      "క",
      "ంప"
    ],
    [
      "కంప",
      "్య"
    ],
    [
      "కంప్య",
      "ూ"
    ],
    [
      "కంప్యూ",
      "ట"
    ],
    [
      "కంప్యూట",
      "ి"
    ],
    [
      "కంప్యూటి",
      "ంగ"
    ],
    [
      "కంప్యూటింగ",
      "్"
    ],
    [
      "కంప్యూటింగ్",
      ",</w>"
    ],
    [
      "య",
      "ూ"
    ],
    [
      "యూ",
      "ని"
    ],
    [
      "యూని",
      "కో"
    ],
    [
      "యూనికో",
      "డ"
    ],
    [
      "యూనికోడ",
      "్</w>"
    ],
    [
      "ప్ర",
      "మాణా"
    ],
    [
      "ప్రమాణా",
      "లు,</w>"
    ],
    [
      "స",
      "ోష"
    ],
    [
      "సోష",
      "ల్</w>"
    ],
    [
      "మ",
      "ీ"
    ],
    [
      "మీ",
      "డి"
    ],
    [
      "మీడి",
      "యా"
    ],
    [
      "మీడియా",
      ",</w>"
    ],
    [
      "ఆ",
      "న్"
    ],
    [
      "ఆన్",
      "‌"
    ],
    [
      "ఆన్‌",
      "ల"
    ],
    [
      "ఆన్‌ల",
      "ై"
    ],
    [
      "ఆన్‌లై",
      "న్</w>"
    ],
    [
      "ప",
      "త్రి"
    ],
    [
      "పత్రి",
      "కల"
    ],
    [
      "పత్రికల",
      "</w>"
    ],
    [
      "వే",
      "గ"
    ],
    [
      "వేగ",
      "ంగా</w>"
    ],
    [
      "వ్యాప్త",
      "ి</w>"
    ],
    [
      "చ",
      "ె"
    ],
    [
      "చె",
      "ంద"
    ],
    [
      "చెంద",
      "ుత"
    ],
    [
      "చెందుత",
      "ోంది.</w>"
    ],
    [
      "ఆధు",
      "ని"
    ],
    [
      "ఆధుని",
      "క</w>"
    ],
    [
      "విద్య",
      "లో</w>"
    ],
    [
      "కూడ",
      "ా</w>"
    ],
    [
      "బ",
      "ో"
    ],
    [
      "బో",
      "ధన"
    ],
    [
      "బోధన",
      "కు</w>"
    ],
    [
      "ప",
      "ద్ధ"
    ],
    [
      "పద్ధ",
      "త"
    ],
    [
      "పద్ధత",
      "ులు</w>"
    ],
    [
      "అ",
      "ంద"
    ],
    [
      "అంద",
      "ు"
    ],
    [
      "అందు",
      "బ"
    ],
    [
      "అందుబ",
      "ాట"
    ],
    [
      "అందుబాట",
      "ుల"
    ],
    [
      "అందుబాటుల",
      "ో"
    ],
    [
      "అందుబాటులో",
      "కి</w>"
    ],
    [
      "వచ్చ",
      "ా"
    ],
    [
      "వచ్చా",
      "యి.</w>"
    ],
    [
      "బ",
      "హ"
    ],
    [
      "బహ",
      "ు"
    ],
    [
      "బహు",
      "భాషా</w>"
    ],
    [
      "వా",
      "త"
    ],
    [
      "వాత",
      "ా"
    ],
    [
      "వాతా",
      "వ"
    ],
    [
      "వాతావ",
      "రణ"
    ],
    [
      "వాతావరణ",
      "ంలో</w>"
    ],
    [
      "తెలుగ",
      "ు"
    ],
    [
      "తెలుగు",
      "వార"
    ],
    [
      "తెలుగువార",
      "ు</w>"
    ],
    [
      "పరి",
      "ర"
    ],
    [
      "పరిర",
      "క్ష"
    ],
    [
      "పరిరక్ష",
      "ణ"
    ],
    [
      "పరిరక్షణ",
      "కు</w>"
    ],
    [
      "శ",
      "్ర"
    ],
    [
      "శ్ర",
      "ద్ధ"
    ],
    [
      "శ్రద్ధ",
      "</w>"
    ],
    [
      "చూప",
      "ుతు"
    ],
    [
      "చూపుతు",
      "న్నారు.</w>"
    ],
    [
      "సాహిత్య",
      "</w>"
    ],
    [
      "స",
      "ద"
    ],
    [
      "సద",
      "స్స"
    ],
    [
      "సదస్స",
      "ులు,</w>"
    ],
    [
      "క",
      "వి"
    ],
    [
      "కవి",
      "త్వ"
    ],
    [
      "కవిత్వ",
      "</w>"
    ],
    [
      "వే",
      "ది"
    ],
    [
      "వేది",
      "క"
    ],
    [
      "వేదిక",
      "లు,</w>"
    ],
    [
      "పుస్త",
      "కో"
    ],
    [
      "పుస్తకో",
      "త్సవా"
    ],
    [
      "పుస్తకోత్సవా",
      "లు,</w>"
    ],
    [
      "సిని",
      "మో"
    ],
    [
      "సినిమో",
      "త్సవాలు</w>"
    ],
    [
      "వ",
      "ం"
    ],
    [
      "వం",
      "ట"
    ],
    [
      "వంట",
      "ి</w>"
    ],
    [
      "కా",
      "ర"
    ],
    [
      "కార",
      "్య"
    ],
    [
      "కార్య",
      "క"
    ],
    [
      "కార్యక",
      "్ర"
    ],
    [
      "కార్యక్ర",
      "మా"
    ],
    [
      "కార్యక్రమా",
      "లు</w>"
    ],
    [
      "చ",
      "ై"
    ],
    [
      "చై",
      "తన"
    ],
    [
      "చైతన",
      "్యా"
    ],
    [
      "చైతన్యా",
      "న్ని</w>"
    ],
    [
      "పె",
      "ంప"
    ],
    [
      "పెంప",
      "ొంద"
    ],
    [
      "పెంపొంద",
      "ిస్తున్నాయి.</w>"
    ],
    [
      "గ",
      "్ర"
    ],
    [
      "గ్ర",
      "ం"
    ],
    [
      "గ్రం",
      "థ"
    ],
    [
      "గ్రంథ",
      "ాల"
    ],
    [
      "గ్రంథాల",
      "యా"
    ],
    [
      "గ్రంథాలయా",
      "లు,</w>"
    ],
    [
      "ఓ",
      "పె"
    ],
    [
      "ఓపె",
      "న్</w>"
    ],
    [
      "డ",
      "ే"
    ],
    [
      "డే",
      "ట"
    ],
    [
      "డేట",
      "ా</w>"
    ],
    [
      "ప్రా",
      "జ"
    ],
    [
      "ప్రాజ",
      "ె"
    ],
    [
      "ప్రాజె",
      "క్"
    ],
    [
      "ప్రాజెక్",
      "ట"
    ],
    [
      "ప్రాజెక్ట",
      "ులు,</w>"
    ],
    [
      "మో",
      "డ"
    ],
    [
      "మోడ",
      "ళ"
    ],
    [
      "మోడళ",
      "్"
    ],
    [
      "మోడళ్",
      "ల</w>"
    ],
    [
      "ర",
      "ూప"
    ],
    [
      "రూప",
      "కల"
    ],
    [
      "రూపకల",
      "్ప"
    ],
    [
      "రూపకల్ప",
      "న"
    ],
    [
      "రూపకల్పన",
      "లో</w>"
    ],
    [
      "ప్రా",
      "ధాన"
    ],
    [
      "ప్రాధాన",
      "్య"
    ],
    [
      "ప్రాధాన్య",
      "త</w>"
    ],
    [
      "ప",
      "ొంద"
    ],
    [
      "పొంద",
      "ే</w>"
    ],
    [
      "ప్ర",
      "త"
    ],
    [
      "ప్రత",
      "ి</w>"
    ],
    [
      "సం",
      "వ"
    ],
    [
      "సంవ",
      "త్స"
    ],
    [
      "సంవత్స",
      "ర"
    ],
    [
      "సంవత్సర",
      "ం</w>"
    ],
    [
      "ది",
      "న"
    ],
    [
      "దిన",
      "ో"
    ],
    [
      "దినో",
      "త్సవాలు</w>"
    ],
    [
      "జ",
      "రు"
    ],
    [
      "జరు",
      "పు"
    ],
    [
      "జరుపు",
      "కోవడ"
    ],
    [
      "జరుపుకోవడ",
      "ం,</w>"
    ],
    [
      "త",
      "రా"
    ],
    [
      "తరా",
      "ని"
    ],
    [
      "తరాని",
      "కి</w>"
    ],
    [
      "భాష",
      "పై</w>"
    ],
    [
      "గ",
      "ౌ"
    ],
    [
      "గౌ",
      "ర"
    ],
    [
      "గౌర",
      "వా"
    ],
    [
      "గౌరవా",
      "న్ని</w>"
    ],
    [
      "కలిగ",
      "ిస్త"
    ],
    [
      "కలిగిస్త",
      "ోంది.</w>"
    ],
    [
      "కే",
      "వల"
    ],
    [
      "కేవల",
      "ం</w>"
    ],
    [
      "సం",
      "భాష"
    ],
    [
      "సంభాష",
      "ణ"
    ],
    [
      "సంభాషణ",
      "ా</w>"
    ],
    [
      "మా",
      "త్ర"
    ],
    [
      "మాత్ర",
      "మ"
    ],
    [
      "మాత్రమ",
      "ే</w>"
    ],
    [
      "కా",
      "క"
    ],
    [
      "కాక",
      ",</w>"
    ],
    [
      "గ",
      "ొ"
    ],
    [
      "గొ",
      "ప"
    ],
    [
      "గొప",
      "్ప"
    ],
    [
      "గొప్ప",
      "</w>"
    ],
    [
      "సాం",
      "స్కృతి"
    ],
    [
      "సాంస్కృతి",
      "క</w>"
    ],
    [
      "వార",
      "స"
    ],
    [
      "వారస",
      "త్వ"
    ],
    [
      "వారసత్వ",
      "ం</w>"
    ],
    [
      "కూడ",
      "ా"
    ],
    [
      "కూడా",
      ".</w>"
    ],
    [
      "పద",
      "సం"
    ],
    [
      "పదసం",
      "పద"
    ],
    [
      "పదసంపద",
      "</w>"
    ],
    [
      "విస్త",
      "ార"
    ],
    [
      "విస్తార",
      "మైనది,</w>"
    ],
    [
      "ప్రా",
      "చ"
    ],
    [
      "ప్రాచ",
      "ీ"
    ],
    [
      "ప్రాచీ",
      "న"
    ],
    [
      "ప్రాచీన",
      "మైనది,</w>"
    ],
    [
      "అన",
      "ే"
    ],
    [
      "అనే",
      "క</w>"
    ],
    [
      "భా",
      "ర"
    ],
    [
      "భార",
      "త"
    ],
    [
      "భారత",
      "ీ"
    ],
    [
      "భారతీ",
      "య"
    ],
    [
      "భారతీయ",
      "</w>"
    ],
    [
      "భాష",
      "ల"
    ],
    [
      "భాషల",
      "పై</w>"
    ],
    [
      "ప్ర",
      "భా"
    ],
    [
      "ప్రభా",
      "వ"
    ],
    [
      "ప్రభావ",
      "ం</w>"
    ],
    [
      "చూప",
      "ి"
    ],
    [
      "చూపి",
      "ంది.</w>"
    ],
    [
      "సాంకేతి",
      "క"
    ],
    [
      "సాంకేతిక",
      "త</w>"
    ],
    [
      "యా",
      "ం"
    ],
    [
      "యాం",
      "త్రి"
    ],
    [
      "యాంత్రి",
      "క</w>"
    ],
    [
      "అన",
      "ు"
    ],
    [
      "అను",
      "వా"
    ],
    [
      "అనువా",
      "ద"
    ],
    [
      "అనువాద",
      "</w>"
    ],
    [
      "పా",
      "ఠ"
    ],
    [
      "పాఠ",
      "్య"
    ],
    [
      "పాఠ్య",
      "పుస్త"
    ],
    [
      "పాఠ్యపుస్త",
      "కా"
    ],
    [
      "పాఠ్యపుస్తకా",
      "లు,</w>"
    ],
    [
      "వ్యా",
      "సా"
    ],
    [
      "వ్యాసా",
      "లు,</w>"
    ],
    [
      "న",
      "వల"
    ],
    [
      "నవల",
      "లు</w>"
    ],
    [
      "ప్రపంచ",
      "</w>"
    ],
    [
      "చ",
      "ద"
    ],
    [
      "చద",
      "వ"
    ],
    [
      "చదవ",
      "బడుతు"
    ],
    [
      "చదవబడుతు",
      "న్నాయి.</w>"
    ],
    [
      "య",
      "ొ"
    ],
    [
      "యొ",
      "క్"
    ],
    [
      "యొక్",
      "క</w>"
    ],
    [
      "ఆధు",
      "న"
    ],
    [
      "ఆధున",
      "ీ"
    ],
    [
      "ఆధునీ",
      "క"
    ],
    [
      "ఆధునీక",
      "రణ"
    ],
    [
      "ఆధునీకరణ",
      "లో</w>"
    ],
    [
      "కృ",
      "త్రి"
    ],
    [
      "కృత్రి",
      "మ</w>"
    ],
    [
      "మ",
      "ే"
    ],
    [
      "మే",
      "ధ"
    ],
    [
      "మేధ",
      "స్స"
    ],
    [
      "మేధస్స",
      "ు</w>"
    ],
    [
      "య",
      "ం"
    ],
    [
      "యం",
      "త్ర</w>"
    ],
    [
      "అ",
      "భ"
    ],
    [
      "అభ",
      "్యా"
    ],
    [
      "అభ్యా",
      "స"
    ],
    [
      "అభ్యాస",
      "ం</w>"
    ],
    [
      "క",
      "ీ"
    ],
    [
      "కీ",
      "ల"
    ],
    [
      "కీల",
      "క</w>"
    ],
    [
      "పా",
      "త్ర</w>"
    ],
    [
      "ప",
      "ోష"
    ],
    [
      "పోష",
      "ిస్తున్నాయి.</w>"
    ],
    [
      "ర",
      "్"
    ],
    [
      "ర్",
      "థ"
    ],
    [
      "సా",
      "ధన"
    ],
    [
      "ా",
      "న్ని</w>"
    ],
    [
      "చ",
      "ే"
    ],
    [
      "సినిమా",
      "లు</w>"
    ],
    [
      "ప్రపంచ",
      "వ్యాప్తంగా</w>"
    ],
    [
      "ప్ర",
      "ే"
    ],
    [
      "ప్రే",
      "క్ష"
    ],
    [
      "ప్రేక్ష",
      "క"
    ],
    [
      "ప్రేక్షక",
      "ు"
    ],
    [
      "ప్రేక్షకు",
      "ల</w>"
    ],
    [
      "మ",
      "న"
    ],
    [
      "మన",
      "స"
    ],
    [
      "మనస",
      "ుల"
    ],
    [
      "మనసుల",
      "న"
    ],
    [
      "మనసులన",
      "ు</w>"
    ],
    [
      "గ",
      "ెలు"
    ],
    [
      "గెలు",
      "చ"
    ],
    [
      "గెలుచ",
      "ు"
    ],
    [
      "గెలుచు",
      "క"
    ],
    [
      "గెలుచుక",
      "ున్నాయి.</w>"
    ],
    [
      "విద",
      "్యా"
    ],
    [
      "విద్యా",
      "ర్థ"
    ],
    [
      "విద్యార్థ",
      "ులు</w>"
    ],
    [
      "సాధన",
      "ాన్ని</w>"
    ],
    [
      "ఉ",
      "ప"
    ],
    [
      "ఉప",
      "య"
    ],
    [
      "ఉపయ",
      "ో"
    ],
    [
      "ఉపయో",
      "గ"
    ],
    [
      "ఉపయోగ",
      "ి"
    ],
    [
      "ఉపయోగి",
      "ంచి</w>"
    ],
    [
      "పరి",
      "జ్ఞాన"
    ],
    [
      "పరిజ్ఞాన",
      "ాన్ని</w>"
    ],
    [
      "మ",
      "ె"
    ],
    [
      "మె",
      "రు"
    ],
    [
      "మెరు",
      "గ"
    ],
    [
      "మెరుగ",
      "ు"
    ],
    [
      "మెరుగు",
      "పర"
    ],
    [
      "మెరుగుపర",
      "చ"
    ],
    [
      "మెరుగుపరచ",
      "వచ్చ"
    ],
    [
      "మెరుగుపరచవచ్చ",
      "ు"
    ],
    [
      "మెరుగుపరచవచ్చు",
      ".</w>"
    ],
    [
      "ట",
      "ో"
    ],
    [
      "టో",
      "క"
    ],
    [
      "టోక",
      "న"
    ],
    [
      "టోకన",
      "ై"
    ],
    [
      "టోకనై",
      "జ"
    ],
    [
      "టోకనైజ",
      "ర"
    ],
    [
      "టోకనైజర",
      "్</w>"
    ],
    [
      "వా",
      "క"
    ],
    [
      "వాక",
      "్య"
    ],
    [
      "వాక్య",
      "</w>"
    ],
    [
      "ని",
      "ర్"
    ],
    [
      "నిర్",
      "మాణా"
    ],
    [
      "నిర్మాణా",
      "న్ని</w>"
    ],
    [
      "అ",
      "ర్థ"
    ],
    [
      "అర్థ",
      "ం</w>"
    ],
    [
      "చే",
      "స"
    ],
    [
      "చేస",
      "ు"
    ],
    [
      "చేసు",
      "కోవడ"
    ],
    [
      "చేసుకోవడ",
      "ంలో</w>"
    ],
    [
      "స",
      "హ"
    ],
    [
      "సహ",
      "ా"
    ],
    [
      "సహా",
      "య"
    ],
    [
      "సహాయ",
      "ప"
    ],
    [
      "సహాయప",
      "డుతు"
    ],
    [
      "సహాయపడుతు",
      "ంది.</w>"
    ],
    [
      "సాధన",
      "ాలు</w>"
    ],
    [
      "ప్రజ",
      "ల"
    ],
    [
      "ప్రజల",
      "కు</w>"
    ],
    [
      "చే",
      "రు"
    ],
    [
      "చేరు",
      "వ"
    ],
    [
      "చేరువ",
      "వ"
    ],
    [
      "చేరువవ",
      "ుతు"
    ],
    [
      "చేరువవుతు",
      "న్నాయి.</w>"
    ]
  ],
  "vocab": {
    "<pad>": 0,
    "<unk>": 1,
    "<bos>": 2,
    "<eos>": 3,
    ",": 4,
    ".": 5,
    "</w>": 6,
    "ం": 7,
    "అ": 8,
    "ఆ": 9,
    "ఇ": 10,
    "ఈ": 11,
    "ఉ": 12,
    "ఎ": 13,
    "ఒ": 14,
    "ఓ": 15,
    "క": 16,
    "గ": 17,
    "చ": 18,
    "జ": 19,
    "ఞ": 20,
    "ట": 21,
    "ఠ": 22,
    "డ": 23,
    "ణ": 24,
    "త": 25,
    "థ": 26,
    "ద": 27,
    "ధ": 28,
    "న": 29,
    "ప": 30,
    "బ": 31,
    "భ": 32,
    "మ": 33,
    "య": 34,
    "ర": 35,
    "ల": 36,
    "ళ": 37,
    "వ": 38,
    "శ": 39,
    "ష": 40,
    "స": 41,
    "హ": 42,
    "ా": 43,
    "ి": 44,
    "ీ": 45,
    "ు": 46,
    "ూ": 47,
    "ృ": 48,
    "ె": 49,
    "ే": 50,
    "ై": 51,
    "ొ": 52,
    "ో": 53,
    "ౌ": 54,
    "్": 55,
    "‌": 56,
    "ు</w>": 57,
    "్ర": 58,
    "లు": 59,
    ",</w>": 60,
    "్య": 61,
    ".</w>": 62,
    "భా": 63,
    "ా</w>": 64,
    "న్": 65,
    "ెలు": 66,
    "రి": 67,
    "్త": 68,
    "తెలు": 69,
    "తెలుగ": 70,
    "భాష": 71,
    "ో</w>": 72,
    "తెలుగు</w>": 73,
    "ి.</w>": 74,
    "న్న": 75,
    "ి</w>": 76,
    "ప్ర": 77,
    "లో</w>": 78,
    "మరి": 79,
    "వా": 80,
    "క</w>": 81,
    "లు</w>": 82,
    "వి": 83,
    "ంగ": 84,
    "ంద": 85,
    "మరియ": 86,
    "మరియు</w>": 87,
    "లు,</w>": 88,
    "న్నా": 89,
    "మా": 90,
    "సా": 91,
    "యి.</w>": 92,
    "స్త": 93,
    "త్ర": 94,
    "న్నాయి.</w>": 95,
    "భాషా</w>": 96,
    "్స": 97,
    "్</w>": 98,
    "ుత": 99,
    "ని": 100,
    "్యా": 101,
    "ంది.</w>": 102,
    "ం</w>": 103,
    "ం,</w>": 104,
    "వార": 105,
    "తి": 106,
    "కా": 107,
    "ుతు": 108,
    "త</w>": 109,
    "ాల": 110,
    "ద్": 111,
    "సం": 112,
    "కల": 113,
    "సాం": 114,
    "కే": 115,
    "త్త": 116,
    "ది": 117,
    "త్స": 118,
    "రు": 119,
    "ాన": 120,
    "ంగా</w>": 121,
    "డుతు": 122,
    "డి": 123,
    "ల్</w>": 124,
    "కో": 125,
    "వ్యా": 126,
    "క్": 127,
    "ాలలో</w>": 128,
    "త్య": 129,
    "రంగ": 130,
    "కృ": 131,
    "ంప": 132,
    "సాంకే": 133,
    "సాంకేతి": 134,
    "యా": 135,
    "త్రి": 136,
    "ూప": 137,
    "పు": 138,
    "త్సవా": 139,
    "న్ని</w>": 140,
    "ిస్త": 141,
    "ప్రా": 142,
    "ంచ": 143,
    "ంలో</w>": 144,
    "సి": 145,
    "సిని": 146,
    "ల</w>": 147,
    "ుగ": 148,
    "విద": 149,
    "డిజ": 150,
    "డిజి": 151,
    "డిజిట": 152,
    "డిజిటల్</w>": 153,
    "వ్యాప": 154,
    "వ్యాప్త": 155,
    "కు</w>": 156,
    "మ</w>": 157,
    "ున్నాయి.</w>": 158,
    "మరిం": 159,
    "మరింత</w>": 160,
    "ాలు</w>": 161,
    "ఒక</w>": 162,
    "ఇద": 163,
    "ఇది</w>": 164,
    "రా": 165,
    "ధాన": 166,
    "బడుతు": 167,
    "సాహ": 168,
    "సాహి": 169,
    "సాహిత్య": 170,
    "ాట": 171,
    "ద్వార": 172,
    "ద్వారా</w>": 173,
    "విస్త": 174,
    "స్": 175,
    "స్కృ": 176,
    "స్కృతి": 177,
    "ార": 178,
    "తన": 179,
    "కలి": 180,
    "కలిగ": 181,
    "న్నారు": 182,
    "న్నారు.</w>": 183,
    "విద్య": 184,
    "సాంకేతిక</w>": 185,
    "రంగాలలో</w>": 186,
    "ోష": 187,
    "న్</w>": 188,
    "వే": 189,
    "ోంది.</w>": 190,
    "ఆధ": 191,
    "ఆధు": 192,
    "కూ": 193,
    "కూడ": 194,
    "కొ": 195,
    "కొత్త": 196,
    "కొత్త</w>": 197,
    "ద్ధ": 198,
    "కి</w>": 199,
    "రణ": 200,
    "చూప": 201,
    "స్స": 202,
    "ులు,</w>": 203,
    "త్": 204,
    "త్వ": 205,
    "పుస్త": 206,
    "మో": 207,
    "త్సవాలు</w>": 208,
    "పె": 209,
    "ొంద": 210,
    "ిస్తున్నాయి.</w>": 211,
    "భవి": 212,
    "భవిష": 213,
    "భవిష్య": 214,
    "భవిష్యత్త": 215,
    "భవిష్యత్తు": 216,
    "భవిష్యత్తులో</w>": 217,
    "్ప": 218,
    "ే</w>": 219,
    "అవ": 220,
    "అవకా": 221,
    "అవకాశ": 222,
    "అవకాశాలు</w>": 223,
    "ఉన్నాయి.</w>": 224,
    "పై": 225,
    "పై</w>": 226,
    "వల": 227,
    "భాష</w>": 228,
    "పద": 229,
    "మై": 230,
    "మైన": 231,
    "మైనది": 232,
    "మైనది,</w>": 233,
    "అన": 234,
    "పా": 235,
    "త్ర</w>": 236,
    "ధన": 237,
    "ఈ</w>": 238,
    "సినిమా": 239,
    "ంచి</w>": 240,
    "పర": 241,
    "ప్రజ": 242,
    "జ్": 243,
    "జ్ఞ": 244,
    "జ్ఞాన": 245,
    "భాషలో</w>": 246,
    "యుగ": 247,
    "యుగంలో</w>": 248,
    "మాణ": 249,
    "మాణా": 250,
    "ులు</w>": 251,
    "ుల": 252,
    "వచ": 253,
    "వచ్": 254,
    "వచ్చ": 255,
    "తమ</w>": 256,
    "పరి": 257,
    "క్ష": 258,
    "కోవ": 259,
    "కోవడ": 260,
    "ప్రప": 261,
    "ప్రపంచ": 262,
    "వ్యాప్తంగా</w>": 263,
    "ద్ర": 264,
    "ద్రా": 265,
    "ద్రావి": 266,
    "ద్రావిడ": 267,
    "ద్రావిడ</w>": 268,
    "భాష.</w>": 269,
    "ఆం": 270,
    "ఆంధ": 271,
    "ఆంధ్ర": 272,
    "ఆంధ్ర</w>": 273,
    "ప్రద": 274,
    "ప్రదే": 275,
    "ప్రదేశ": 276,
    "ప్రదేశ్</w>": 277,
    "తె": 278,
    "తెల": 279,
    "తెలంగ": 280,
    "తెలంగా": 281,
    "తెలంగాణ": 282,
    "తెలంగాణ</w>": 283,
    "రాష": 284,
    "రాష్": 285,
    "రాష్ట": 286,
    "రాష్ట్ర": 287,
    "రాష్ట్రాలలో</w>": 288,
    "ప్రధాన": 289,
    "ప్రధానంగా</w>": 290,
    "మాట": 291,
    "మాట్": 292,
    "మాట్ల": 293,
    "మాట్లా": 294,
    "మాట్లాడ": 295,
    "మాట్లాడబడుతు": 296,
    "మాట్లాడబడుతుంది.</w>": 297,
    "సాహిత్యం,</w>": 298,
    "సినిమా,</w>": 299,
    "సంగ": 300,
    "సంగీ": 301,
    "సంగీత": 302,
    "సంగీతం,</w>": 303,
    "నాట": 304,
    "నాటక</w>": 305,
    "రంగం,</w>": 306,
    "వార్త": 307,
    "వార్తా</w>": 308,
    "మాధ": 309,
    "మాధ్య": 310,
    "మాధ్యమా": 311,
    "మాధ్యమాల</w>": 312,
    "విస్తరి": 313,
    "విస్తరించి</w>": 314,
    "ఉంది.</w>": 315,
    "చరి": 316,
    "చరిత్ర": 317,
    "చరిత్ర,</w>": 318,
    "సంస్కృతి": 319,
    "సంస్కృతి,</w>": 320,
    "పం": 321,
    "పండ": 322,
    "పండుగ": 323,
    "పండుగలు,</w>": 324,
    "ఆహ": 325,
    "ఆహార": 326,
    "ఆహార</w>": 327,
    "పరంప": 328,
    "పరంపర": 329,
    "పరంపరల": 330,
    "పరంపరలత": 331,
    "పరంపరలతో</w>": 332,
    "ప్రజలు</w>": 333,
    "ప్రత్య": 334,
    "ప్రత్యే": 335,
    "ప్రత్యేక": 336,
    "ప్రత్యేకతన": 337,
    "ప్రత్యేకతను</w>": 338,
    "కలిగి</w>": 339,
    "ఉన్నారు.</w>": 340,
    "విద్య,</w>": 341,
    "విజ్ఞాన": 342,
    "విజ్ఞానం,</w>": 343,
    "ఎన్న": 344,
    "ఎన్నో</w>": 345,
    "రచ": 346,
    "రచన": 347,
    "రచనలు</w>": 348,
    "వెలు": 349,
    "వెలువ": 350,
    "వెలువడుతు": 351,
    "వెలువడుతున్నాయి.</w>": 352,
    "కంప": 353,
    "కంప్య": 354,
    "కంప్యూ": 355,
    "కంప్యూట": 356,
    "కంప్యూటి": 357,
    "కంప్యూటింగ": 358,
    "కంప్యూటింగ్": 359,
    "కంప్యూటింగ్,</w>": 360,
    "యూ": 361,
    "యూని": 362,
    "యూనికో": 363,
    "యూనికోడ": 364,
    "యూనికోడ్</w>": 365,
    "ప్రమాణా": 366,
    "ప్రమాణాలు,</w>": 367,
    "సోష": 368,
    "సోషల్</w>": 369,
    "మీ": 370,
    "మీడి": 371,
    "మీడియా": 372,
    "మీడియా,</w>": 373,
    "ఆన్": 374,
    "ఆన్‌": 375,
    "ఆన్‌ల": 376,
    "ఆన్‌లై": 377,
    "ఆన్‌లైన్</w>": 378,
    "పత్రి": 379,
    "పత్రికల": 380,
    "పత్రికల</w>": 381,
    "వేగ": 382,
    "వేగంగా</w>": 383,
    "వ్యాప్తి</w>": 384,
    "చె": 385,
    "చెంద": 386,
    "చెందుత": 387,
    "చెందుతోంది.</w>": 388,
    "ఆధుని": 389,
    "ఆధునిక</w>": 390,
    "విద్యలో</w>": 391,
    "కూడా</w>": 392,
    "బో": 393,
    "బోధన": 394,
    "బోధనకు</w>": 395,
    "పద్ధ": 396,
    "పద్ధత": 397,
    "పద్ధతులు</w>": 398,
    "అంద": 399,
    "అందు": 400,
    "అందుబ": 401,
    "అందుబాట": 402,
    "అందుబాటుల": 403,
    "అందుబాటులో": 404,
    "అందుబాటులోకి</w>": 405,
    "వచ్చా": 406,
    "వచ్చాయి.</w>": 407,
    "బహ": 408,
    "బహు": 409,
    "బహుభాషా</w>": 410,
    "వాత": 411,
    "వాతా": 412,
    "వాతావ": 413,
    "వాతావరణ": 414,
    "వాతావరణంలో</w>": 415,
    "తెలుగు": 416,
    "తెలుగువార": 417,
    "తెలుగువారు</w>": 418,
    "పరిర": 419,
    "పరిరక్ష": 420,
    "పరిరక్షణ": 421,
    "పరిరక్షణకు</w>": 422,
    "శ్ర": 423,
    "శ్రద్ధ": 424,
    "శ్రద్ధ</w>": 425,
    "చూపుతు": 426,
    "చూపుతున్నారు.</w>": 427,
    "సాహిత్య</w>": 428,
    "సద": 429,
    "సదస్స": 430,
    "సదస్సులు,</w>": 431,
    "కవి": 432,
    "కవిత్వ": 433,
    "కవిత్వ</w>": 434,
    "వేది": 435,
    "వేదిక": 436,
    "వేదికలు,</w>": 437,
    "పుస్తకో": 438,
    "పుస్తకోత్సవా": 439,
    "పుస్తకోత్సవాలు,</w>": 440,
    "సినిమో": 441,
    "సినిమోత్సవాలు</w>": 442,
    "వం": 443,
    "వంట": 444,
    "వంటి</w>": 445,
    "కార": 446,
    "కార్య": 447,
    "కార్యక": 448,
    "కార్యక్ర": 449,
    "కార్యక్రమా": 450,
    "కార్యక్రమాలు</w>": 451,
    "చై": 452,
    "చైతన": 453,
    "చైతన్యా": 454,
    "చైతన్యాన్ని</w>": 455,
    "పెంప": 456,
    "పెంపొంద": 457,
    "పెంపొందిస్తున్నాయి.</w>": 458,
    "గ్ర": 459,
    "గ్రం": 460,
    "గ్రంథ": 461,
    "గ్రంథాల": 462,
    "గ్రంథాలయా": 463,
    "గ్రంథాలయాలు,</w>": 464,
    "ఓపె": 465,
    "ఓపెన్</w>": 466,
    "డే": 467,
    "డేట": 468,
    "డేటా</w>": 469,
    "ప్రాజ": 470,
    "ప్రాజె": 471,
    "ప్రాజెక్": 472,
    "ప్రాజెక్ట": 473,
    "ప్రాజెక్టులు,</w>": 474,
    "మోడ": 475,
    "మోడళ": 476,
    "మోడళ్": 477,
    "మోడళ్ల</w>": 478,
    "రూప": 479,
    "రూపకల": 480,
    "రూపకల్ప": 481,
    "రూపకల్పన": 482,
    "రూపకల్పనలో</w>": 483,
    "ప్రాధాన": 484,
    "ప్రాధాన్య": 485,
    "ప్రాధాన్యత</w>": 486,
    "పొంద": 487,
    "పొందే</w>": 488,
    "ప్రత": 489,
    "ప్రతి</w>": 490,
    "సంవ": 491,
    "సంవత్స": 492,
    "సంవత్సర": 493,
    "సంవత్సరం</w>": 494,
    "దిన": 495,
    "దినో": 496,
    "దినోత్సవాలు</w>": 497,
    "జరు": 498,
    "జరుపు": 499,
    "జరుపుకోవడ": 500,
    "జరుపుకోవడం,</w>": 501,
    "తరా": 502,
    "తరాని": 503,
    "తరానికి</w>": 504,
    "భాషపై</w>": 505,
    "గౌ": 506,
    "గౌర": 507,
    "గౌరవా": 508,
    "గౌరవాన్ని</w>": 509,
    "కలిగిస్త": 510,
    "కలిగిస్తోంది.</w>": 511,
    "కేవల": 512,
    "కేవలం</w>": 513,
    "సంభాష": 514,
    "సంభాషణ": 515,
    "సంభాషణా</w>": 516,
    "మాత్ర": 517,
    "మాత్రమ": 518,
    "మాత్రమే</w>": 519,
    "కాక": 520,
    "కాక,</w>": 521,
    "గొ": 522,
    "గొప": 523,
    "గొప్ప": 524,
    "గొప్ప</w>": 525,
    "సాంస్కృతి": 526,
    "సాంస్కృతిక</w>": 527,
    "వారస": 528,
    "వారసత్వ": 529,
    "వారసత్వం</w>": 530,
    "కూడా": 531,
    "కూడా.</w>": 532,
    "పదసం": 533,
    "పదసంపద": 534,
    "పదసంపద</w>": 535,
    "విస్తార": 536,
    "విస్తారమైనది,</w>": 537,
    "ప్రాచ": 538,
    "ప్రాచీ": 539,
    "ప్రాచీన": 540,
    "ప్రాచీనమైనది,</w>": 541,
    "అనే": 542,
    "అనేక</w>": 543,
    "భార": 544,
    "భారత": 545,
    "భారతీ": 546,
    "భారతీయ": 547,
    "భారతీయ</w>": 548,
    "భాషల": 549,
    "భాషలపై</w>": 550,
    "ప్రభా": 551,
    "ప్రభావ": 552,
    "ప్రభావం</w>": 553,
    "చూపి": 554,
    "చూపింది.</w>": 555,
    "సాంకేతిక": 556,
    "సాంకేతికత</w>": 557,
    "యాం": 558,
    "యాంత్రి": 559,
    "యాంత్రిక</w>": 560,
    "అను": 561,
    "అనువా": 562,
    "అనువాద": 563,
    "అనువాద</w>": 564,
    "పాఠ": 565,
    "పాఠ్య": 566,
    "పాఠ్యపుస్త": 567,
    "పాఠ్యపుస్తకా": 568,
    "పాఠ్యపుస్తకాలు,</w>": 569,
    "వ్యాసా": 570,
    "వ్యాసాలు,</w>": 571,
    "నవల": 572,
    "నవలలు</w>": 573,
    "ప్రపంచ</w>": 574,
    "చద": 575,
    "చదవ": 576,
    "చదవబడుతు": 577,
    "చదవబడుతున్నాయి.</w>": 578,
    "యొ": 579,
    "యొక్": 580,
    "యొక్క</w>": 581,
    "ఆధున": 582,
    "ఆధునీ": 583,
    "ఆధునీక": 584,
    "ఆధునీకరణ": 585,
    "ఆధునీకరణలో</w>": 586,
    "కృత్రి": 587,
    "కృత్రిమ</w>": 588,
    "మే": 589,
    "మేధ": 590,
    "మేధస్స": 591,
    "మేధస్సు</w>": 592,
    "యం": 593,
    "యంత్ర</w>": 594,
    "అభ": 595,
    "అభ్యా": 596,
    "అభ్యాస": 597,
    "అభ్యాసం</w>": 598,
    "కీ": 599,
    "కీల": 600,
    "కీలక</w>": 601,
    "పాత్ర</w>": 602,
    "పోష": 603,
    "పోషిస్తున్నాయి.</w>": 604,
    "ర్": 605,
    "ర్థ": 606,
    "సాధన": 607,
    "ాన్ని</w>": 608,
    "చే": 609,
    "సినిమాలు</w>": 610,
    "ప్రపంచవ్యాప్తంగా</w>": 611,
    "ప్రే": 612,
    "ప్రేక్ష": 613,
    "ప్రేక్షక": 614,
    "ప్రేక్షకు": 615,
    "ప్రేక్షకుల</w>": 616,
    "మన": 617,
    "మనస": 618,
    "మనసుల": 619,
    "మనసులన": 620,
    "మనసులను</w>": 621,
    "గెలు": 622,
    "గెలుచ": 623,
    "గెలుచు": 624,
    "గెలుచుక": 625,
    "గెలుచుకున్నాయి.</w>": 626,
    "విద్యా": 627,
    "విద్యార్థ": 628,
    "విద్యార్థులు</w>": 629,
    "సాధనాన్ని</w>": 630,
    "ఉప": 631,
    "ఉపయ": 632,
    "ఉపయో": 633,
    "ఉపయోగ": 634,
    "ఉపయోగి": 635,
    "ఉపయోగించి</w>": 636,
    "పరిజ్ఞాన": 637,
    "పరిజ్ఞానాన్ని</w>": 638,
    "మె": 639,
    "మెరు": 640,
    "మెరుగ": 641,
    "మెరుగు": 642,
    "మెరుగుపర": 643,
    "మెరుగుపరచ": 644,
    "మెరుగుపరచవచ్చ": 645,
    "మెరుగుపరచవచ్చు": 646,
    "మెరుగుపరచవచ్చు.</w>": 647,
    "టో": 648,
    "టోక": 649,
    "టోకన": 650,
    "టోకనై": 651,
    "టోకనైజ": 652,
    "టోకనైజర": 653,
    "టోకనైజర్</w>": 654,
    "వాక": 655,
    "వాక్య": 656,
    "వాక్య</w>": 657,
    "నిర్": 658,
    "నిర్మాణా": 659,
    "నిర్మాణాన్ని</w>": 660,
    "అర్థ": 661,
    "అర్థం</w>": 662,
    "చేస": 663,
    "చేసు": 664,
    "చేసుకోవడ": 665,
    "చేసుకోవడంలో</w>": 666,
    "సహ": 667,
    "సహా": 668,
    "సహాయ": 669,
    "సహాయప": 670,
    "సహాయపడుతు": 671,
    "సహాయపడుతుంది.</w>": 672,
    "సాధనాలు</w>": 673,
    "ప్రజల": 674,
    "ప్రజలకు</w>": 675,
    "చేరు": 676,
    "చేరువ": 677,
    "చేరువవ": 678,
    "చేరువవుతు": 679,
    "చేరువవుతున్నాయి.</w>": 680
  },
  "special_tokens": [
    "<pad>",
    "<unk>",
    "<bos>",
    "<eos>"
  ],
  "word_end": "</w>"
}