{
  "merges": [
    [
      "ు",
      "</w>"
    ],
    [
      "్",
      "ర"
    ],
    [
      "ల",
      "ు"
    ],
    [
      ",",
      "</w>"
    ],
    [
      "్",
      "య"
    ],
    [
      ".",
      "</w>"
    ],
    [
      "భ",
      "ా"
    ],
    [
      "ా",
      "</w>"
    ],
    [
      "త",
      "ె"
    ],
    [
      "ర",
      "ి"
    ],
    [
      "్",
      "త"
    ],
    [
      "న",
      "్"
    ],
    [
      "తె",
      "లు"
    ],
    [
      "తెలు",
      "గ"
    ],
    [
      "భా",
      "ష"
    ],
    [
      "ో",
      "</w>"
    ],
    [
      "తెలుగ",
      "ు</w>"
    ],
    [
      "ద",
      "ి"
    ],
    [
      "క",
      "</w>"
    ],
    [
      "ప",
      "్ర"
    ],
    [
      "మ",
      "రి"
    ],
    [
      "ల",
      "ో</w>"
    ],
    [
      "వ",
      "ా"
    ],
    [
      "న్",
      "న"
    ],
    [
      "వ",
      "ి"
    ],
    [
      "మరి",
      "య"
    ],
    [
      "మరియ",
      "ు</w>"
    ],
    [
      "ం",
      "గ"
    ],
    [
      "ి",
      "</w>"
    ],
    [
      "లు",
      ",</w>"
    ],
    [
      "ల",
      "ు</w>"
    ],
    [
      "న్న",
      "ా"
    ],
    [
      "మ",
      "ా"
    ],
    [
      "స",
      "ా"
    ],
    [
      "స",
      "్త"
    ],
    [
      "త",
      "్ర"
    ],
    [
      "య",
      "ి"
    ],
    [
      "యి",
      ".</w>"
    ],
    [
      "ం",
      "ది"
    ],
    [
      "న్నా",
      "యి.</w>"
    ],
    [
      "భాష",
      "ా</w>"
    ],
    [
      "్",
      "స"
    ],
    [
      "్",
      "</w>"
    ],
    [
      "ు",
      "త"
    ],
    [
      "ంది",
      ".</w>"
    ],
    [
      "ం",
      ",</w>"
    ],
    [
      "న",
      "ి"
    ],
    [
      "వా",
      "ర"
    ],
    [
      "స",
      "ం"
    ],
    [
      "త",
      "ి"
    ],
    [
      "్య",
      "ా"
    ],
    [
      "క",
      "ా"
    ],
    [
      "ా",
      "ల"
    ],
    [
      "ుత",
      "ు"
    ],
    [
      "ద",
      "్"
    ],
    [
      "క",
      "ల"
    ],
    [
      "సా",
      "ం"
    ],
    [
      "క",
      "ే"
    ],
    [
      "త",
      "్త"
    ],
    [
      "త",
      "్స"
    ],
    [
      "త",
      "</w>"
    ],
    [
      "ం",
      "</w>"
    ],
    [
      "ాల",
      "లో</w>"
    ],
    [
      "ా",
      "న"
    ],
    [
      "ంగ",
      "ా</w>"
    ],
    [
      "డ",
      "ుతు"
    ],
    [
      "త",
      "్య"
    ],
    [
      "ర",
      "ంగ"
    ],
    [
      "క",
      "ృ"
    ],
    [
      "ం",
      "ప"
    ],
    [
      "ర",
      "ు"
    ],
    [
      "సాం",
      "కే"
    ],
    [
      "సాంకే",
      "తి"
    ],
    [
      "డ",
      "ి"
    ],
    [
      "ల",
      "్</w>"
    ],
    [
      "క",
      "ో"
    ],
    [
      "య",
      "ా"
    ],
    [
      "త్ర",
      "ి"
    ],
    [
      "వ",
      "్యా"
    ],
    [
      "ం",
      "ద"
    ],
    [
      "క",
      "్"
    ],
    [
      "ూ",
      "ప"
    ],
    [
      "ప",
      "ు"
    ],
    [
      "త్స",
      "వా"
    ],
    [
      "ప్ర",
      "ా"
    ],
    [
      "ఒ",
      "క</w>"
    ],
    [
      "ఇ",
      "ది"
    ],
    [
      "ఇది",
      "</w>"
    ],
    [
      "ర",
      "ా"
    ],
    [
      "ధ",
      "ాన"
    ],
    [
      "్",
      "ల"
    ],
    [
      "బ",
      "డుతు"
    ],
    [
      "సా",
      "హ"
    ],
    [
      "సాహ",
      "ి"
    ],
    [
      "సాహి",
      "త్య"
    ],
    [
      "స",
      "ి"
    ],
    [
      "సి",
      "ని"
    ],
    [
      "ా",
      "ట"
    ],
    [
      "ద్",
      "వార"
    ],
    [
      "ద్వార",
      "ా</w>"
    ],
    [
      "వి",
      "స్త"
    ],
    [
      "ం",
      "చ"
    ],
    [
      "స",
      "్"
    ],
    [
      "స్",
      "కృ"
    ],
    [
      "స్కృ",
      "తి"
    ],
    [
      "ు",
      "గ"
    ],
    [
      "ా",
      "ర"
    ],
    [
      "త",
      "న"
    ],
    [
      "కల",
      "ి"
    ],
    [
      "కలి",
      "గ"
    ],
    [
      "న్నా",
      "రు"
    ],
    [
      "న్నారు",
      ".</w>"
    ],
    [
      "వి",
      "ద"
    ],
    [
      "విద",
      "్య"
    ],
    [
      "సాంకేతి",
      "క</w>"
    ],
    [
      "రంగ",
      "ాలలో</w>"
    ],
    [
      "డి",
      "జ"
    ],
    [
      "డిజ",
      "ి"
    ],
    [
      "డిజి",
      "ట"
    ],
    [
      "డిజిట",
      "ల్</w>"
    ],
    [
      "ం",
      "లో</w>"
    ],
    [
      "ో",
      "ష"
    ],
    [
      "న్",
      "</w>"
    ],
    [
      "వ",
      "ే"
    ],
    [
      "వ్యా",
      "ప"
    ],
    [
      "వ్యాప",
      "్త"
    ],
    [
      "ో",
      "ంది.</w>"
    ],
    [
      "ఆ",
      "ధ"
    ],
    [
      "ఆధ",
      "ు"
    ],
    [
      "క",
      "ూ"
    ],
    [
      "కూ",
      "డ"
    ],
    [
      "క",
      "ు</w>"
    ],
    [
      "క",
      "ొ"
    ],
    [
      "కొ",
      "త్త"
    ],
    [
      "కొత్త",
      "</w>"
    ],
    [
      "ద్",
      "ధ"
    ],
    [
      "క",
      "ి</w>"
    ],
    [
      "ర",
      "ణ"
    ],
    [
      "మ",
      "</w>"
    ],
    [
      "చ",
      "ూప"
    ],
    [
      "స",
      "్స"
    ],
    [
      "ు",
      "లు,</w>"
    ],
    [
      "త",
      "్"
    ],
    [
      "త్",
      "వ"
    ],
    [
      "పు",
      "స్త"
    ],
    [
      "మ",
      "ో"
    ],
    [
      "త్సవా",
      "లు</w>"
    ],
    [
      "న్న",
      "ి</w>"
    ],
    [
      "ప",
      "ె"
    ],
    [
      "స్త",
      "ు"
    ],
    [
      "స్తు",
      "న్నాయి.</w>"
    ],
    [
      "భ",
      "వి"
    ],
    [
      "భవి",
      "ష"
    ],
    [
      "భవిష",
      "్య"
    ],
    [
      "భవిష్య",
      "త్త"
    ],
    [
      "భవిష్యత్త",
      "ు"
    ],
    [
      "భవిష్యత్తు",
      "లో</w>"
    ],
    [
      "్",
      "ప"
    ],
    [
      "మరి",
      "ం"
    ],
    [
      "మరిం",
      "త</w>"
    ],
    [
      "ే",
      "</w>"
    ],
    [
      "అ",
      "వ"
    ],
    [
      "అవ",
      "కా"
    ],
    [
      "అవకా",
      "శ"
    ],
    [
      "అవకాశ",
      "ా"
    ],
    [
      "అవకాశా",
      "లు</w>"
    ],
    [
      "ఉ",
      "న్నాయి.</w>"
    ],
    [
      "ప",
      "ై"
    ],
    [
      "పై",
      "</w>"
    ],
    [
      "వ",
      "ల"
    ],
    [
      "భాష",
      "</w>"
    ],
    [
      "ప",
      "ద"
    ],
    [
      "మ",
      "ై"
    ],
    [
      "మై",
      "న"
    ],
    [
      "మైన",
      "ది"
    ],
    [
      "మైనది",
      ",</w>"
    ],
    [
      "అ",
      "న"
    ],
    [
      "ప",
      "ా"
    ],
    [
      "త్ర",
      "</w>"
    ],
    [
      "ద",
      "్ర"
    ],
    [
      "ద్ర",
      "ా"
    ],
    [
      "ద్రా",
      "వి"
    ],
    [
      "ద్రావి",
      "డ"
    ],
    [
      "ద్రావిడ",
      "</w>"
    ],
    [
      "భాష",
      ".</w>"
    ],
    [
      "ఆ",
      "ం"
    ],
    [
      "ఆం",
      "ధ"
    ],
    [
      "ఆంధ",
      "్ర"
    ],
    [
      "ఆంధ్ర",
      "</w>"
    ],
    [
      "ప్ర",
      "ద"
    ],
    [
      "ప్రద",
      "ే"
    ],
    [
      "ప్రదే",
      "శ"
    ],
    [
      "ప్రదేశ",
      "్</w>"
    ],
    [
      "తె",
      "ల"
    ],
    [
      "తెల",
      "ంగ"
    ],
    [
      "తెలంగ",
      "ా"
    ],
    [
      "తెలంగా",
      "ణ"
    ],
    [
      "తెలంగాణ",
      "</w>"
    ],
    [
      "రా",
      "ష"
    ],
    [
      "రాష",
      "్"
    ],
    [
      "రాష్",
      "ట"
    ],
    [
      "రాష్ట",
      "్ర"
    ],
    [
      "రాష్ట్ర",
      "ాలలో</w>"
    ],
    [
      "ప్ర",
      "ధాన"
    ],
    [
      "ప్రధాన",
      "ంగా</w>"
    ],
    [
      "మా",
      "ట"
    ],
    [
      "మాట",
      "్ల"
    ],
    [
      "మాట్ల",
      "ా"
    ],
    [
      "మాట్లా",
      "డ"
    ],
    [
      "మాట్లాడ",
      "బడుతు"
    ],
    [
      "మాట్లాడబడుతు",
      "ంది.</w>"
    ],
    [
      "సాహిత్య",
      "ం,</w>"
    ],
    [
      "సిని",
      "మా"
    ],
    [
      "సినిమా",
      ",</w>"
    ],
    [
      "స",
      "ంగ"
    ],
    [
      "సంగ",
      "ీ"
    ],
    [
      "సంగీ",
      "త"
    ],
    [
      "సంగీత",
      "ం,</w>"
    ],
    [
      "న",
      "ాట"
    ],
    [
      "నాట",
      "క</w>"
    ],
    [
      "రంగ",
      "ం,</w>"
    ],
    [
      "వార",
      "్త"
    ],
    [
      "వార్త",
      "ా</w>"
    ],
    [
      "మా",
      "ధ"
    ],
    [
      "మాధ",
      "్య"
    ],
    [
      "మాధ్య",
      "మా"
    ],
    [
      "మాధ్యమా",
      "ల"
    ],
    [
      "మాధ్యమాల",
      "</w>"
    ],
    [
      "విస్త",
      "రి"
    ],
    [
      "విస్తరి",
      "ంచ"
    ],
    [
      "విస్తరించ",
      "ి</w>"
    ],
    [
      "ఉ",
      "ంది.</w>"
    ],
    [
      "చ",
      "రి"
    ],
    [
      "చరి",
      "త్ర"
    ],
    [
      "చరిత్ర",
      ",</w>"
    ],
    [
      "సం",
      "స్కృతి"
    ],
    [
      "సంస్కృతి",
      ",</w>"
    ],
    [
      "ప",
      "ం"
    ],
    [
      "పం",
      "డ"
    ],
    [
      "పండ",
      "ుగ"
    ],
    [
      "పండుగ",
      "లు,</w>"
    ],
    [
      "ఆ",
      "హ"
    ],
    [
      "ఆహ",
      "ార"
    ],
    [
      "ఆహార",
      "</w>"
    ],
    [
      "ప",
      "ర"
    ],
    [
      "పర",
      "ంప"
    ],
    [
      "పరంప",
      "ర"
    ],
    [
      "పరంపర",
      "ల"
    ],
    [
      "పరంపరల",
      "త"
    ],
    [
      "పరంపరలత",
      "ో</w>"
    ],
    [
      "ప్ర",
      "జ"
    ],
    [
      "ప్రజ",
      "లు</w>"
    ],
    [
      "ప్ర",
      "త్య"
    ],
    [
      "ప్రత్య",
      "ే"
    ],
    [
      "ప్రత్యే",
      "క"
    ],
    [
      "ప్రత్యేక",
      "తన"
    ],
    [
      "ప్రత్యేకతన",
      "ు</w>"
    ],
    [
      "కలిగ",
      "ి</w>"
    ],
    [
      "ఉ",
      "న్నారు.</w>"
    ],
    [
      "విద్య",
      ",</w>"
    ],
    [
      "వి",
      "జ"
    ],
    [
      "విజ",
      "్"
    ],
    [
      "విజ్",
      "ఞ"
    ],
    [
      "విజ్ఞ",
      "ాన"
    ],
    [
      "విజ్ఞాన",
      "ం,</w>"
    ],
    [
      "భాష",
      "లో</w>"
    ],
    [
      "ఎ",
      "న్న"
    ],
    [
      "ఎన్న",
      "ో</w>"
    ],
    [
      "ర",
      "చ"
    ],
    [
      "రచ",
      "న"
    ],
    [
      "రచన",
      "లు</w>"
    ],
    [
      "వ",
      "ె"
    ],
    [
      "వె",
      "లు"
    ],
    [
      "వెలు",
      "వ"
    ],
    [
      "వెలువ",
      "డుతు"
    ],
    [
      "వెలువడుతు",
      "న్నాయి.</w>"
    ],
    [
      "య",
      "ుగ"
    ],
    [
      "యుగ",
      "ంలో</w>"
    ],
    [
      "క",
      "ంప"
    ],
    [
      "కంప",
      "్య"
    ],
    [
      "కంప్య",
      "ూ"
    ],
    [
      "కంప్యూ",
      "ట"
    ],
    [
      "కంప్యూట",
      "ి"
    ],
    [
      "కంప్యూటి",
      "ంగ"
    ],
    [
      "కంప్యూటింగ",
      "్"
    ],
    [
      "కంప్యూటింగ్",
      ",</w>"
    ],
    [
      "య",
      "ూ"
    ],
    [
      "యూ",
      "ని"
    ],
    [
      "యూని",
      "కో"
    ],
    [
      "యూనికో",
      "డ"
    ],
    [
      "యూనికోడ",
      "్</w>"
    ],
    [
      "ప్ర",
      "మా"
    ],
    [
      "ప్రమా",
      "ణ"
    ],
    [
      "ప్రమాణ",
      "ా"
    ],
    [
      "ప్రమాణా",
      "లు,</w>"
    ],
    [
      "స",
      "ోష"
    ],
    [
      "సోష",
      "ల్</w>"
    ],
    [
      "మ",
      "ీ"
    ],
    [
      "మీ",
      "డి"
    ],
    [
      "మీడి",
      "యా"
    ],
    [
      "మీడియా",
      ",</w>"
    ],
    [
      "ఆ",
      "న్"
    ],
    [
      "ఆన్",
      "‌"
    ],
    [
      "ఆన్‌",
      "ల"
    ],
    [
      "ఆన్‌ల",
      "ై"
    ],
    [
      "ఆన్‌లై",
      "న్</w>"
    ],
    [
      "ప",
      "త్రి"
    ],
    [
      "పత్రి",
      "కల"
    ],
    [
      "పత్రికల",
      "</w>"
    ],
    [
      "వే",
      "గ"
    ],
    [
      "వేగ",
      "ంగా</w>"
    ],
    [
      "వ్యాప్త",
      "ి</w>"
    ],
    [
      "చ",
      "ె"
    ],
    [
      "చె",
      "ంద"
    ],
    [
      "చెంద",
      "ుత"
    ],
    [
      "చెందుత",
      "ోంది.</w>"
    ],
    [
      "ఆధు",
      "ని"
    ],
    [
      "ఆధుని",
      "క</w>"
    ],
    [
      "విద్య",
      "లో</w>"
    ],
    [
      "కూడ",
      "ా</w>"
    ],
    [
      "బ",
      "ో"
    ],
    [
      "బో",
      "ధ"
    ],
    [
      "బోధ",
      "న"
    ],
    [
      "బోధన",
      "కు</w>"
    ],
    [
      "ప",
      "ద్ధ"
    ],
    [
      "పద్ధ",
      "త"
    ],
    [
      "పద్ధత",
      "ు"
    ],
    [
      "పద్ధతు",
      "లు</w>"
    ],
    [
      "అ",
      "ంద"
    ],
    [
      "అంద",
      "ు"
    ],
    [
      "అందు",
      "బ"
    ],
    [
      "అందుబ",
      "ాట"
    ],
    [
      "అందుబాట",
      "ు"
    ],
    [
      "అందుబాటు",
      "ల"
    ],
    [
      "అందుబాటుల",
      "ో"
    ],
    [
      "అందుబాటులో",
      "కి</w>"
    ],
    [
      "వ",
      "చ"
    ],
    [
      "వచ",
      "్"
    ],
    [
      "వచ్",
      "చ"
    ],
    [
      "వచ్చ",
      "ా"
    ],
    [
      "వచ్చా",
      "యి.</w>"
    ],
    [
      "బ",
      "హ"
    ],
    [
      "బహ",
      "ు"
    ],
    [
      "బహు",
      "భాషా</w>"
    ],
    [
      "వా",
      "త"
    ],
    [
      "వాత",
      "ా"
    ],
    [
      "వాతా",
      "వ"
    ],
    [
      "వాతావ",
      "రణ"
    ],
    [
      "వాతావరణ",
      "ంలో</w>"
    ],
    [
      "తెలుగ",
      "ు"
    ],
    [
      "తెలుగు",
      "వార"
    ],
    [
      "తెలుగువార",
      "ు</w>"
    ],
    [
      "త",
      "మ</w>"
    ],
    [
      "ప",
      "రి"
    ],
    [
      "పరి",
      "ర"
    ],
    [
      "పరిర",
      "క్"
    ],
    [
      "పరిరక్",
      "ష"
    ],
    [
      "పరిరక్ష",
      "ణ"
    ],
    [
      "పరిరక్షణ",
      "కు</w>"
    ],
    [
      "శ",
      "్ర"
    ],
    [
      "శ్ర",
      "ద్ధ"
    ],
    [
      "శ్రద్ధ",
      "</w>"
    ],
    [
      "చూప",
      "ుతు"
    ],
    [
      "చూపుతు",
      "న్నారు.</w>"
    ],
    [
      "సాహిత్య",
      "</w>"
    ],
    [
      "స",
      "ద"
    ],
    [
      "సద",
      "స్స"
    ],
    [
      "సదస్స",
      "ులు,</w>"
    ],
    [
      "క",
      "వి"
    ],
    [
      "కవి",
      "త్వ"
    ],
    [
      "కవిత్వ",
      "</w>"
    ],
    [
      "వే",
      "ది"
    ],
    [
      "వేది",
      "క"
    ],
    [
      "వేదిక",
      "లు,</w>"
    ],
    [
      "పుస్త",
      "కో"
    ],
    [
      "పుస్తకో",
      "త్సవా"
    ],
    [
      "పుస్తకోత్సవా",
      "లు,</w>"
    ],
    [
      "సిని",
      "మో"
    ],
    [
      "సినిమో",
      "త్సవాలు</w>"
    ],
    [
      "వ",
      "ం"
    ],
    [
      "వం",
      "ట"
    ],
    [
      "వంట",
      "ి</w>"
    ],
    [
      "కా",
      "ర"
    ],
    [
      "కార",
      "్య"
    ],
    [
      "కార్య",
      "క"
    ],
    [
      "కార్యక",
      "్ర"
    ],
    [
      "కార్యక్ర",
      "మా"
    ],
    [
      "కార్యక్రమా",
      "లు</w>"
    ],
    [
      "చ",
      "ై"
    ],
    [
      "చై",
      "తన"
    ],
    [
      "చైతన",
      "్యా"
    ],
    [
      "చైతన్యా",
      "న్ని</w>"
    ],
    [
      "పె",
      "ంప"
    ],
    [
      "పెంప",
      "ొ"
    ],
    [
      "పెంపొ",
      "ంది"
    ],
    [
      "పెంపొంది",
      "స్తున్నాయి.</w>"
    ],
    [
      "గ",
      "్ర"
    ],
    [
      "గ్ర",
      "ం"
    ],
    [
      "గ్రం",
      "థ"
    ],
    [
      "గ్రంథ",
      "ాల"
    ],
    [
      "గ్రంథాల",
      "యా"
    ],
    [
      "గ్రంథాలయా",
      "లు,</w>"
    ],
    [
      "ఓ",
      "పె"
    ],
    [
      "ఓపె",
      "న్</w>"
    ],
    [
      "డ",
      "ే"
    ],
    [
      "డే",
      "ట"
    ],
    [
      "డేట",
      "ా</w>"
    ],
    [
      "ప్రా",
      "జ"
    ],
    [
      "ప్రాజ",
      "ె"
    ],
    [
      "ప్రాజె",
      "క్"
    ],
    [
      "ప్రాజెక్",
      "ట"
    ],
    [
      "ప్రాజెక్ట",
      "ులు,</w>"
    ],
    [
      "మో",
      "డ"
    ],
    [
      "మోడ",
      "ళ"
    ],
    [
      "మోడళ",
      "్ల"
    ],
    [
      "మోడళ్ల",
      "</w>"
    ],
    [
      "ర",
      "ూప"
    ],
    [
      "రూప",
      "కల"
    ],
    [
      "రూపకల",
      "్ప"
    ],
    [
      "రూపకల్ప",
      "న"
    ],
    [
      "రూపకల్పన",
      "లో</w>"
    ],
    [
      "ప్రా",
      "ధాన"
    ],
    [
      "ప్రాధాన",
      "్య"
    ],
    [
      "ప్రాధాన్య",
      "త</w>"
    ],
    [
      "ప",
      "ొ"
    ],
    [
      "పొ",
      "ంద"
    ],
    [
      "పొంద",
      "ే</w>"
    ],
    [
      "ప్ర",
      "త"
    ],
    [
      "ప్రత",
      "ి</w>"
    ],
    [
      "సం",
      "వ"
    ],
    [
      "సంవ",
      "త్స"
    ],
    [
      "సంవత్స",
      "ర"
    ],
    [
      "సంవత్సర",
      "ం</w>"
    ],
    [
      "ది",
      "న"
    ],
    [
      "దిన",
      "ో"
    ],
    [
      "దినో",
      "త్సవాలు</w>"
    ],
    [
      "జ",
      "రు"
    ],
    [
      "జరు",
      "పు"
    ],
    [
      "జరుపు",
      "కో"
    ],
    [
      "జరుపుకో",
      "వ"
    ],
    [
      "జరుపుకోవ",
      "డ"
    ],
    [
      "జరుపుకోవడ",
      "ం,</w>"
    ],
    [
      "త",
      "రా"
    ],
    [
      "తరా",
      "ని"
    ],
    [
      "తరాని",
      "కి</w>"
    ],
    [
      "ఈ",
      "</w>"
    ],
    [
      "భాష",
      "పై</w>"
    ],
    [
      "గ",
      "ౌ"
    ],
    [
      "గౌ",
      "ర"
    ],
    [
      "గౌర",
      "వా"
    ],
    [
      "గౌరవా",
      "న్ని</w>"
    ],
    [
      "కలిగ",
      "ి"
    ],
    [
      "కలిగి",
      "స్త"
    ],
    [
      "కలిగిస్త",
      "ోంది.</w>"
    ],
    [
      "కే",
      "వల"
    ],
    [
      "కేవల",
      "ం</w>"
    ],
    [
      "సం",
      "భాష"
    ],
    [
      "సంభాష",
      "ణ"
    ],
    [
      "సంభాషణ",
      "ా</w>"
    ],
    [
      "మా",
      "త్ర"
    ],
    [
      "మాత్ర",
      "మ"
    ],
    [
      "మాత్రమ",
      "ే</w>"
    ],
    [
      "కా",
      "క"
    ],
    [
      "కాక",
      ",</w>"
    ],
    [
      "గ",
      "ొ"
    ],
    [
      "గొ",
      "ప"
    ],
    [
      "గొప",
      "్ప"
    ],
    [
      "గొప్ప",
      "</w>"
    ],
    [
      "సాం",
      "స్కృతి"
    ],
    [
      "సాంస్కృతి",
      "క</w>"
    ],
    [
      "వార",
      "స"
    ],
    [
      "వారస",
      "త్వ"
    ],
    [
      "వారసత్వ",
      "ం</w>"
    ],
    [
      "కూడ",
      "ా"
    ],
    [
      "కూడా",
      ".</w>"
    ],
    [
      "పద",
      "సం"
    ],
    [
      "పదసం",
      "పద"
    ],
    [
      "పదసంపద",
      "</w>"
    ],
    [
      "విస్త",
      "ార"
    ],
    [
      "విస్తార",
      "మైనది,</w>"
    ],
    [
      "ప్రా",
      "చ"
    ],
    [
      "ప్రాచ",
      "ీ"
    ],
    [
      "ప్రాచీ",
      "న"
    ],
    [
      "ప్రాచీన",
      "మైనది,</w>"
    ],
    [
      "అన",
      "ే"
    ],
    [
      "అనే",
      "క</w>"
    ],
    [
      "భా",
      "ర"
    ],
    [
      "భార",
      "త"
    ],
    [
      "భారత",
      "ీ"
    ],
    [
      "భారతీ",
      "య"
    ],
    [
      "భారతీయ",
      "</w>"
    ],
    [
      "భాష",
      "ల"
    ],
    [
      "భాషల",
      "పై</w>"
    ],
    [
      "ప్ర",
      "భా"
    ],
    [
      "ప్రభా",
      "వ"
    ],
    [
      "ప్రభావ",
      "ం</w>"
    ],
    [
      "చూప",
      "ి"
    ],
    [
      "చూపి",
      "ంది.</w>"
    ],
    [
      "సాంకేతి",
      "క"
    ],
    [
      "సాంకేతిక",
      "త</w>"
    ],
    [
      "యా",
      "ం"
    ],
    [
      "యాం",
      "త్రి"
    ],
    [
      "యాంత్రి",
      "క</w>"
    ],
    [
      "అన",
      "ు"
    ],
    [
      "అను",
      "వా"
    ],
    [
      "అనువా",
      "ద"
    ],
    [
      "అనువాద",
      "</w>"
    ],
    [
      "పా",
      "ఠ"
    ],
    [
      "పాఠ",
      "్య"
    ],
    [
      "పాఠ్య",
      "పుస్త"
    ],
    [
      "పాఠ్యపుస్త",
      "కా"
    ],
    [
      "పాఠ్యపుస్తకా",
      "లు,</w>"
    ],
    [
      "వ్యా",
      "సా"
    ],
    [
      "వ్యాసా",
      "లు,</w>"
    ],
    [
      "న",
      "వల"
    ],
    [
      "నవల",
      "లు</w>"
    ],
    [
      "ప్ర",
      "ప"
    ],
    [
      "ప్రప",
      "ంచ"
    ],
    [
      "ప్రపంచ",
      "</w>"
    ],
    [
      "వ్యాప్త",
      "ంగా</w>"
    ],
    [
      "చ",
      "ద"
    ],
    [
      "చద",
      "వ"
    ],
    [
      "చదవ",
      "బడుతు"
    ],
    [
      "చదవబడుతు",
      "న్నాయి.</w>"
    ],
    [
      "య",
      "ొ"
    ],
    [
      "యొ",
      "క్"
    ],
    [
      "యొక్",
      "క</w>"
    ],
    [
      "ఆధు",
      "న"
    ],
    [
      "ఆధున",
      "ీ"
    ],
    [
      "ఆధునీ",
      "క"
    ],
    [
      "ఆధునీక",
      "రణ"
    ],
    [
      "ఆధునీకరణ",
      "లో</w>"
    ],
    [
      "కృ",
      "త్రి"
    ],
    [
      "కృత్రి",
      "మ</w>"
    ],
    [
      "మ",
      "ే"
    ],
    [
      "మే",
      "ధ"
    ],
    [
      "మేధ",
      "స్స"
    ],
    [
      "మేధస్స",
      "ు</w>"
    ],
    [
      "య",
      "ం"
    ],
    [
      "యం",
      "త్ర</w>"
    ],
    [
      "అ",
      "భ"
    ],
    [
      "అభ",
      "్యా"
    ],
    [
      "అభ్యా",
      "సం"
    ],
    [
      "అభ్యాసం",
      "</w>"
    ],
    [
      "క",
      "ీ"
    ],
    [
      "కీ",
      "ల"
    ],
    [
      "కీల",
      "క</w>"
    ],
    [
      "పా",
      "త్ర</w>"
    ],
    [
      "ప",
      "ోష"
    ],
    [
      "పోష",
      "ి"
    ],
    [
      "పోషి",
      "స్తున్నాయి.</w>"
    ]
  ],
  "vocab": {
    "<pad>": 0,
    "<unk>": 1,
    "<bos>": 2,
    "<eos>": 3,
    ",": 4,
    ".": 5,
    "</w>": 6,
    "ం": 7,
    "అ": 8,
    "ఆ": 9,
    "ఇ": 10,
    "ఈ": 11,
    "ఉ": 12,
    "ఎ": 13,
    "ఒ": 14,
    "ఓ": 15,
    "క": 16,
    "గ": 17,
    "చ": 18,
    "జ": 19,
    "ఞ": 20,
    "ట": 21,
    "ఠ": 22,
    "డ": 23,
    "ణ": 24,
    "త": 25,
    "థ": 26,
    "ద": 27,
    "ధ": 28,
    "న": 29,
    "ప": 30,
    "బ": 31,
    "భ": 32,
    "మ": 33,
    "య": 34,
    "ర": 35,
    "ల": 36,
    "ళ": 37,
    "వ": 38,
    "శ": 39,
    "ష": 40,
    "స": 41,
    "హ": 42,
    "ా": 43,
    "ి": 44,
    "ీ": 45,
    "ు": 46,
    "ూ": 47,
    "ృ": 48,
    "ె": 49,
    "ే": 50,
    "ై": 51,
    "ొ": 52,
    "ో": 53,
    "ౌ": 54,
    "్": 55,
    "‌": 56,
    "ు</w>": 57,
    "్ర": 58,
    "లు": 59,
    ",</w>": 60,
    "్య": 61,
    ".</w>": 62,
    "భా": 63,
    "ా</w>": 64,
    "తె": 65,
    "రి": 66,
    "్త": 67,
    "న్": 68,
    "తెలు": 69,
    "తెలుగ": 70,
    "భాష": 71,
    "ో</w>": 72,
    "తెలుగు</w>": 73,
    "ది": 74,
    "క</w>": 75,
    "ప్ర": 76,
    "మరి": 77,
    "లో</w>": 78,
    "వా": 79,
    "న్న": 80,
    "వి": 81,
    "మరియ": 82,
    "మరియు</w>": 83,
    "ంగ": 84,
    "ి</w>": 85,
    "లు,</w>": 86,
    "లు</w>": 87,
    "న్నా": 88,
    "మా": 89,
    "సా": 90,
    "స్త": 91,
    "త్ర": 92,
    "యి": 93,
    "యి.</w>": 94,
    "ంది": 95,
    "న్నాయి.</w>": 96,
    "భాషా</w>": 97,
    "్స": 98,
    "్</w>": 99,
    "ుత": 100,
    "ంది.</w>": 101,
    "ం,</w>": 102,
    "ని": 103,
    "వార": 104,
    "సం": 105,
    "తి": 106,
    "్యా": 107,
    "కా": 108,
    "ాల": 109,
    "ుతు": 110,
    "ద్": 111,
    "కల": 112,
    "సాం": 113,
    "కే": 114,
    "త్త": 115,
    "త్స": 116,
    "త</w>": 117,
    "ం</w>": 118,
    "ాలలో</w>": 119,
    "ాన": 120,
    "ంగా</w>": 121,
    "డుతు": 122,
    "త్య": 123,
    "రంగ": 124,
    "కృ": 125,
    "ంప": 126,
    "రు": 127,
    "సాంకే": 128,
    "సాంకేతి": 129,
    "డి": 130,
    "ల్</w>": 131,
    "కో": 132,
    "యా": 133,
    "త్రి": 134,
    "వ్యా": 135,
    "ంద": 136,
    "క్": 137,
    "ూప": 138,
    "పు": 139,
    "త్సవా": 140,
    "ప్రా": 141,
    "ఒక</w>": 142,
    "ఇది": 143,
    "ఇది</w>": 144,
    "రా": 145,
    "ధాన": 146,
    "్ల": 147,
    "బడుతు": 148,
    "సాహ": 149,
    "సాహి": 150,
    "సాహిత్య": 151,
    "సి": 152,
    "సిని": 153,
    "ాట": 154,
    "ద్వార": 155,
    "ద్వారా</w>": 156,
    "విస్త": 157,
    "ంచ": 158,
    "స్": 159,
    "స్కృ": 160,
    "స్కృతి": 161,
    "ుగ": 162,
    "ార": 163,
    "తన": 164,
    "కలి": 165,
    "కలిగ": 166,
    "న్నారు": 167,
    "న్నారు.</w>": 168,
    "విద": 169,
    "విద్య": 170,
    "సాంకేతిక</w>": 171,
    "రంగాలలో</w>": 172,
    "డిజ": 173,
    "డిజి": 174,
    "డిజిట": 175,
    "డిజిటల్</w>": 176,
    "ంలో</w>": 177,
    "ోష": 178,
    "న్</w>": 179,
    "వే": 180,
    "వ్యాప": 181,
    "వ్యాప్త": 182,
    "ోంది.</w>": 183,
    "ఆధ": 184,
    "ఆధు": 185,
    "కూ": 186,
    "కూడ": 187,
    "కు</w>": 188,
    "కొ": 189,
    "కొత్త": 190,
    "కొత్త</w>": 191,
    "ద్ధ": 192,
    "కి</w>": 193,
    "రణ": 194,
    "మ</w>": 195,
    "చూప": 196,
    "స్స": 197,
    "ులు,</w>": 198,
    "త్": 199,
    "త్వ": 200,
    "పుస్త": 201,
    "మో": 202,
    "త్సవాలు</w>": 203,
    "న్ని</w>": 204,
    "పె": 205,
    "స్తు": 206,
    "స్తున్నాయి.</w>": 207,
    "భవి": 208,
    "భవిష": 209,
    "భవిష్య": 210,
    "భవిష్యత్త": 211,
    "భవిష్యత్తు": 212,
    "భవిష్యత్తులో</w>": 213,
    "్ప": 214,
    "మరిం": 215,
    "మరింత</w>": 216,
    "ే</w>": 217,
    "అవ": 218,
    "అవకా": 219,
    "అవకాశ": 220,
    "అవకాశా": 221,
    "అవకాశాలు</w>": 222,
    "ఉన్నాయి.</w>": 223,
    "పై": 224,
    "పై</w>": 225,
    "వల": 226,
    "భాష</w>": 227,
    "పద": 228,
    "మై": 229,
    "మైన": 230,
    "మైనది": 231,
    "మైనది,</w>": 232,
    "అన": 233,
    "పా": 234,
    "త్ర</w>": 235,
    "ద్ర": 236,
    "ద్రా": 237,
    "ద్రావి": 238,
    "ద్రావిడ": 239,
    "ద్రావిడ</w>": 240,
    "భాష.</w>": 241,
    "ఆం": 242,
    "ఆంధ": 243,
    "ఆంధ్ర": 244,
    "ఆంధ్ర</w>": 245,
    "ప్రద": 246,
    "ప్రదే": 247,
    "ప్రదేశ": 248,
    "ప్రదేశ్</w>": 249,
    "తెల": 250,
    "తెలంగ": 251,
    "తెలంగా": 252,
    "తెలంగాణ": 253,
    "తెలంగాణ</w>": 254,
    "రాష": 255,
    "రాష్": 256,
    "రాష్ట": 257,
    "రాష్ట్ర": 258,
    "రాష్ట్రాలలో</w>": 259,
    "ప్రధాన": 260,
    "ప్రధానంగా</w>": 261,
    "మాట": 262,
    "మాట్ల": 263,
    "మాట్లా": 264,
    "మాట్లాడ": 265,
    "మాట్లాడబడుతు": 266,
    "మాట్లాడబడుతుంది.</w>": 267,
    "సాహిత్యం,</w>": 268,
    "సినిమా": 269,
    "సినిమా,</w>": 270,
    "సంగ": 271,
    "సంగీ": 272,
    "సంగీత": 273,
    "సంగీతం,</w>": 274,
    "నాట": 275,
    "నాటక</w>": 276,
    "రంగం,</w>": 277,
    "వార్త": 278,
    "వార్తా</w>": 279,
    "మాధ": 280,
    "మాధ్య": 281,
    "మాధ్యమా": 282,
    "మాధ్యమాల": 283,
    "మాధ్యమాల</w>": 284,
    "విస్తరి": 285,
    "విస్తరించ": 286,
    "విస్తరించి</w>": 287,
    "ఉంది.</w>": 288,
    "చరి": 289,
    "చరిత్ర": 290,
    "చరిత్ర,</w>": 291,
    "సంస్కృతి": 292,
    "సంస్కృతి,</w>": 293,
    "పం": 294,
    "పండ": 295,
    "పండుగ": 296,
    "పండుగలు,</w>": 297,
    "ఆహ": 298,
    "ఆహార": 299,
    "ఆహార</w>": 300,
    "పర": 301,
    "పరంప": 302,
    "పరంపర": 303,
    "పరంపరల": 304,
    "పరంపరలత": 305,
    "పరంపరలతో</w>": 306,
    "ప్రజ": 307,
    "ప్రజలు</w>": 308,
    "ప్రత్య": 309,
    "ప్రత్యే": 310,
    "ప్రత్యేక": 311,
    "ప్రత్యేకతన": 312,
    "ప్రత్యేకతను</w>": 313,
    "కలిగి</w>": 314,
    "ఉన్నారు.</w>": 315,
    "విద్య,</w>": 316,
    "విజ": 317,
    "విజ్": 318,
    "విజ్ఞ": 319,
    "విజ్ఞాన": 320,
    "విజ్ఞానం,</w>": 321,
    "భాషలో</w>": 322,
    "ఎన్న": 323,
    "ఎన్నో</w>": 324,
    "రచ": 325,
    "రచన": 326,
    "రచనలు</w>": 327,
    "వె": 328,
    "వెలు": 329,
    "వెలువ": 330,
    "వెలువడుతు": 331,
    "వెలువడుతున్నాయి.</w>": 332,
    "యుగ": 333,
    "యుగంలో</w>": 334,
    "కంప": 335,
    "కంప్య": 336,
    "కంప్యూ": 337,
    "కంప్యూట": 338,
    "కంప్యూటి": 339,
    "కంప్యూటింగ": 340,
    "కంప్యూటింగ్": 341,
    "కంప్యూటింగ్,</w>": 342,
    "యూ": 343,
    "యూని": 344,
    "యూనికో": 345,
    "యూనికోడ": 346,
    "యూనికోడ్</w>": 347,
    "ప్రమా": 348,
    "ప్రమాణ": 349,
    "ప్రమాణా": 350,
    "ప్రమాణాలు,</w>": 351,
    "సోష": 352,
    "సోషల్</w>": 353,
    "మీ": 354,
    "మీడి": 355,
    "మీడియా": 356,
    "మీడియా,</w>": 357,
    "ఆన్": 358,
    "ఆన్‌": 359,
    "ఆన్‌ల": 360,
    "ఆన్‌లై": 361,
    "ఆన్‌లైన్</w>": 362,
    "పత్రి": 363,
    "పత్రికల": 364,
    "పత్రికల</w>": 365,
    "వేగ": 366,
    "వేగంగా</w>": 367,
    "వ్యాప్తి</w>": 368,
    "చె": 369,
    "చెంద": 370,
    "చెందుత": 371,
    "చెందుతోంది.</w>": 372,
    "ఆధుని": 373,
    "ఆధునిక</w>": 374,
    "విద్యలో</w>": 375,
    "కూడా</w>": 376,
    "బో": 377,
    "బోధ": 378,
    "బోధన": 379,
    "బోధనకు</w>": 380,
    "పద్ధ": 381,
    "పద్ధత": 382,
    "పద్ధతు": 383,
    "పద్ధతులు</w>": 384,
    "అంద": 385,
    "అందు": 386,
    "అందుబ": 387,
    "అందుబాట": 388,
    "అందుబాటు": 389,
    "అందుబాటుల": 390,
    "అందుబాటులో": 391,
    "అందుబాటులోకి</w>": 392,
    "వచ": 393,
    "వచ్": 394,
    "వచ్చ": 395,
    "వచ్చా": 396,
    "వచ్చాయి.</w>": 397,
    "బహ": 398,
    "బహు": 399,
    "బహుభాషా</w>": 400,
    "వాత": 401,
    "వాతా": 402,
    "వాతావ": 403,
    "వాతావరణ": 404,
    "వాతావరణంలో</w>": 405,
    "తెలుగు": 406,
    "తెలుగువార": 407,
    "తెలుగువారు</w>": 408,
    "తమ</w>": 409,
    "పరి": 410,
    "పరిర": 411,
    "పరిరక్": 412,
    "పరిరక్ష": 413,
    "పరిరక్షణ": 414,
    "పరిరక్షణకు</w>": 415,
    "శ్ర": 416,
    "శ్రద్ధ": 417,
    "శ్రద్ధ</w>": 418,
    "చూపుతు": 419,
    "చూపుతున్నారు.</w>": 420,
    "సాహిత్య</w>": 421,
    "సద": 422,
    "సదస్స": 423,
    "సదస్సులు,</w>": 424,
    "కవి": 425,
    "కవిత్వ": 426,
    "కవిత్వ</w>": 427,
    "వేది": 428,
    "వేదిక": 429,
    "వేదికలు,</w>": 430,
    "పుస్తకో": 431,
    "పుస్తకోత్సవా": 432,
    "పుస్తకోత్సవాలు,</w>": 433,
    "సినిమో": 434,
    "సినిమోత్సవాలు</w>": 435,
    "వం": 436,
    "వంట": 437,
    "వంటి</w>": 438,
    "కార": 439,
    "కార్య": 440,
    "కార్యక": 441,
    "కార్యక్ర": 442,
    "కార్యక్రమా": 443,
    "కార్యక్రమాలు</w>": 444,
    "చై": 445,
    "చైతన": 446,
    "చైతన్యా": 447,
    "చైతన్యాన్ని</w>": 448,
    "పెంప": 449,
    "పెంపొ": 450,
    "పెంపొంది": 451,
    "పెంపొందిస్తున్నాయి.</w>": 452,
    "గ్ర": 453,
    "గ్రం": 454,
    "గ్రంథ": 455,
    "గ్రంథాల": 456,
    "గ్రంథాలయా": 457,
    "గ్రంథాలయాలు,</w>": 458,
    "ఓపె": 459,
    "ఓపెన్</w>": 460,
    "డే": 461,
    "డేట": 462,
    "డేటా</w>": 463,
    "ప్రాజ": 464,
    "ప్రాజె": 465,
    "ప్రాజెక్": 466,
    "ప్రాజెక్ట": 467,
    "ప్రాజెక్టులు,</w>": 468,
    "మోడ": 469,
    "మోడళ": 470,
    "మోడళ్ల": 471,
    "మోడళ్ల</w>": 472,
    "రూప": 473,
    "రూపకల": 474,
    "రూపకల్ప": 475,
    "రూపకల్పన": 476,
    "రూపకల్పనలో</w>": 477,
    "ప్రాధాన": 478,
    "ప్రాధాన్య": 479,
    "ప్రాధాన్యత</w>": 480,
    "పొ": 481,
    "పొంద": 482,
    "పొందే</w>": 483,
    "ప్రత": 484,
    "ప్రతి</w>": 485,
    "సంవ": 486,
    "సంవత్స": 487,
    "సంవత్సర": 488,
    "సంవత్సరం</w>": 489,
    "దిన": 490,
    "దినో": 491,
    "దినోత్సవాలు</w>": 492,
    "జరు": 493,
    "జరుపు": 494,
    "జరుపుకో": 495,
    "జరుపుకోవ": 496,
    "జరుపుకోవడ": 497,
    "జరుపుకోవడం,</w>": 498,
    "తరా": 499,
    "తరాని": 500,
    "తరానికి</w>": 501,
    "ఈ</w>": 502,
    "భాషపై</w>": 503,
    "గౌ": 504,
    "గౌర": 505,
    "గౌరవా": 506,
    "గౌరవాన్ని</w>": 507,
    "కలిగి": 508,
    "కలిగిస్త": 509,
    "కలిగిస్తోంది.</w>": 510,
    "కేవల": 511,
    "కేవలం</w>": 512,
    "సంభాష": 513,
    "సంభాషణ": 514,
    "సంభాషణా</w>": 515,
    "మాత్ర": 516,
    "మాత్రమ": 517,
    "మాత్రమే</w>": 518,
    "కాక": 519,
    "కాక,</w>": 520,
    "గొ": 521,
    "గొప": 522,
    "గొప్ప": 523,
    "గొప్ప</w>": 524,
    "సాంస్కృతి": 525,
    "సాంస్కృతిక</w>": 526,
    "వారస": 527,
    "వారసత్వ": 528,
    "వారసత్వం</w>": 529,
    "కూడా": 530,
    "కూడా.</w>": 531,
    "పదసం": 532,
    "పదసంపద": 533,
    "పదసంపద</w>": 534,
    "విస్తార": 535,
    "విస్తారమైనది,</w>": 536,
    "ప్రాచ": 537,
    "ప్రాచీ": 538,
    "ప్రాచీన": 539,
    "ప్రాచీనమైనది,</w>": 540,
    "అనే": 541,
    "అనేక</w>": 542,
    "భార": 543,
    "భారత": 544,
    "భారతీ": 545,
    "భారతీయ": 546,
    "భారతీయ</w>": 547,
    "భాషల": 548,
    "భాషలపై</w>": 549,
    "ప్రభా": 550,
    "ప్రభావ": 551,
    "ప్రభావం</w>": 552,
    "చూపి": 553,
    "చూపింది.</w>": 554,
    "సాంకేతిక": 555,
    "సాంకేతికత</w>": 556,
    "యాం": 557,
    "యాంత్రి": 558,
    "యాంత్రిక</w>": 559,
    "అను": 560,
    "అనువా": 561,
    "అనువాద": 562,
    "అనువాద</w>": 563,
    "పాఠ": 564,
    "పాఠ్య": 565,
    "పాఠ్యపుస్త": 566,
    "పాఠ్యపుస్తకా": 567,
    "పాఠ్యపుస్తకాలు,</w>": 568,
    "వ్యాసా": 569,
    "వ్యాసాలు,</w>": 570,
    "నవల": 571,
    "నవలలు</w>": 572,
    "ప్రప": 573,
    "ప్రపంచ": 574,
    "ప్రపంచ</w>": 575,
    "వ్యాప్తంగా</w>": 576,
    "చద": 577,
    "చదవ": 578,
    "చదవబడుతు": 579,
    "చదవబడుతున్నాయి.</w>": 580,
    "యొ": 581,
    "యొక్": 582,
    "యొక్క</w>": 583,
    "ఆధున": 584,
    "ఆధునీ": 585,
    "ఆధునీక": 586,
    "ఆధునీకరణ": 587,
    "ఆధునీకరణలో</w>": 588,
    "కృత్రి": 589,
    "కృత్రిమ</w>": 590,
    "మే": 591,
    "మేధ": 592,
    "మేధస్స": 593,
    "మేధస్సు</w>": 594,
    "యం": 595,
    "యంత్ర</w>": 596,
    "అభ": 597,
    "అభ్యా": 598,
    "అభ్యాసం": 599,
    "అభ్యాసం</w>": 600,
    "కీ": 601,
    "కీల": 602,
    "కీలక</w>": 603,
    "పాత్ర</w>": 604,
    "పోష": 605,
    "పోషి": 606,
    "పోషిస్తున్నాయి.</w>": 607
  },
  "special_tokens": [
    "<pad>",
    "<unk>",
    "<bos>",
    "<eos>"
  ],
  "word_end": "</w>"
}